<unk>	0
<s>	0
</s>	0

	0
<2ace>	0
<2ace_Arab>	0
<2af>	0
<2am>	0
<2an>	0
<2ar>	0
<2ary>	0
<2arz>	0
<2as>	0
<2az>	0
<2ba>	0
<2ban>	0
<2bar>	0
<2be>	0
<2bg>	0
<2bho>	0
<2bjn>	0
<2bjn_Arab>	0
<2bm>	0
<2bn>	0
<2br>	0
<2bs>	0
<2bug>	0
<2ca>	0
<2ceb>	0
<2crh_Latn>	0
<2cs>	0
<2cy>	0
<2da>	0
<2de>	0
<2din>	0
<2dv>	0
<2dz>	0
<2el>	0
<2en>	0
<2eo>	0
<2es>	0
<2et>	0
<2eu>	0
<2fa>	0
<2fi>	0
<2fo>	0
<2fr>	0
<2fr_CA>	0
<2fur>	0
<2fuv>	0
<2fy>	0
<2ga>	0
<2gd>	0
<2gl>	0
<2gn>	0
<2gu>	0
<2ha>	0
<2he>	0
<2hi>	0
<2hne>	0
<2hr>	0
<2hu>	0
<2hy>	0
<2id>	0
<2ig>	0
<2io>	0
<2is>	0
<2it>	0
<2iu>	0
<2ja>	0
<2jv>	0
<2ka>	0
<2kk>	0
<2km>	0
<2kn>	0
<2ko>	0
<2kr>	0
<2kr_Arab>	0
<2ks>	0
<2ks_Deva>	0
<2ku>	0
<2ky>	0
<2la>	0
<2lb>	0
<2li>	0
<2lij>	0
<2lmo>	0
<2lt>	0
<2ltg>	0
<2lv>	0
<2mag>	0
<2mg>	0
<2mi>	0
<2mk>	0
<2ml>	0
<2mn>	0
<2mni>	0
<2mr>	0
<2ms>	0
<2mt>	0
<2mwl>	0
<2my>	0
<2>	0
<2nds>	0
<2nds_NL>	0
<2ne>	0
<2nl>	0
<2nn>	0
<2no>	0
<2nus>	0
<2oc>	0
<2or>	0
<2pa>	0
<2pl>	0
<2prs>	0
<2ps>	0
<2pt>	0
<2ro>	0
<2ru>	0
<2rw>	0
<2sc>	0
<2scn>	0
<2sd>	0
<2se>	0
<2sh>	0
<2shn>	0
<2si>	0
<2en_xx_simple>	0
<2sk>	0
<2sl>	0
<2so>	0
<2sq>	0
<2sr>	0
<2sv>	0
<2sw>	0
<2szl>	0
<2ta>	0
<2taq>	0
<2taq_Tfng>	0
<2te>	0
<2tg>	0
<2th>	0
<2tk>	0
<2fil>	0
<2tr>	0
<2tt>	0
<2tzm>	0
<2ug>	0
<2uk>	0
<2ur>	0
<2uz>	0
<2vec>	0
<2vi>	0
<2wa>	0
<2wuu>	0
<2xh>	0
<2yi>	0
<2yo>	0
<2zh>	0
<2zh_Hant>	0
<2zu>	0
<2abt>	0
<2acf>	0
<2ada>	0
<2adh>	0
<2ady>	0
<2agr>	0
<2ahk>	0
<2ak>	0
<2akb>	0
<2alt>	0
<2alz>	0
<2amu>	0
<2ang>	0
<2ann>	0
<2ape>	0
<2arn>	0
<2av>	0
<2awa>	0
<2ay>	0
<2az_RU>	0
<2bas>	0
<2bbc>	0
<2bci>	0
<2ber>	0
<2ber_Latn>	0
<2bew>	0
<2bg_Latn>	0
<2bgp>	0
<2bi>	0
<2bik>	0
<2bim>	0
<2bn_Latn>	0
<2bo>	0
<2bqc>	0
<2bru>	0
<2brx>	0
<2bts>	0
<2btx>	0
<2bua>	0
<2bus>	0
<2bzj>	0
<2cab>	0
<2cac>	0
<2cak>	0
<2cbk>	0
<2cce>	0
<2ce>	0
<2cfm>	0
<2ch>	0
<2chk>	0
<2chm>	0
<2chr>	0
<2ckb>	0
<2cnh>	0
<2co>	0
<2cr_Latn>	0
<2crh>	0
<2crs>	0
<2ctd_Latn>	0
<2ctu>	0
<2cuk>	0
<2cv>	0
<2dje>	0
<2djk>	0
<2dln>	0
<2doi>	0
<2dov>	0
<2dtp>	0
<2zxx_xx_dtynoise>	0
<2dwr>	0
<2dyu>	0
<2ee>	0
<2el_Latn>	0
<2emp>	0
<2enq>	0
<2bum>	0
<2ff>	0
<2ffm>	0
<2fip>	0
<2fj>	0
<2fon>	0
<2frp>	0
<2gag>	0
<2gbm>	0
<2gof>	0
<2gom>	0
<2gom_Latn>	0
<2gor>	0
<2grc>	0
<2gsw>	0
<2gu_Latn>	0
<2gub>	0
<2guc>	0
<2guh>	0
<2gui>	0
<2gv>	0
<2gvl>	0
<2gym>	0
<2haw>	0
<2hi_Latn>	0
<2hif>	0
<2hil>	0
<2hmn>	0
<2ho>	0
<2ht>	0
<2hui>	0
<2hus>	0
<2hvn>	0
<2iba>	0
<2ibb>	0
<2ify>	0
<2ilo>	0
<2inb>	0
<2iso>	0
<2ium>	0
<2izz>	0
<2jac>	0
<2jam>	0
<2jiv>	0
<2jvn>	0
<2kaa>	0
<2kaa_Latn>	0
<2kac>	0
<2kbd>	0
<2kbp>	0
<2kek>	0
<2kg>	0
<2kha>	0
<2kj>	0
<2kjg>	0
<2kjh>	0
<2kl>	0
<2kmb>	0
<2kmz_Latn>	0
<2kn_Latn>	0
<2knj>	0
<2koi>	0
<2kos>	0
<2krc>	0
<2kri>	0
<2ksd>	0
<2ksw>	0
<2ktu>	0
<2kum>	0
<2kv>	0
<2kw>	0
<2kwi>	0
<2laj>	0
<2lg>	0
<2lhu>	0
<2ln>	0
<2lo>	0
<2lrc>	0
<2lu>	0
<2lus>	0
<2mad>	0
<2mai>	0
<2mak>	0
<2mam>	0
<2mas>	0
<2maz>	0
<2mbt>	0
<2mdf>	0
<2meo>	0
<2meu>	0
<2mfe>	0
<2mgh>	0
<2mh>	0
<2min>	0
<2miq>	0
<2mkn>	0
<2ml_Latn>	0
<2mps>	0
<2mqy>	0
<2mrj>	0
<2mrw>	0
<2ms_Arab>	0
<2ms_Arab_BN>	0
<2msb>	0
<2msi>	0
<2msm>	0
<2myv>	0
<2nan_Latn_TW>	0
<2ndc_ZW>	0
<2new>	0
<2ngu>	0
<2nhe>	0
<2nia>	0
<2nij>	0
<2niq>	0
<2nnb>	0
<2noa>	0
<2nog>	0
<2nr>	0
<2nso>	0
<2nut>	0
<2nv>	0
<2ny>	0
<2nyu>	0
<2nzi>	0
<2oj>	0
<2om>	0
<2os>	0
<2otq>	0
<2pag>	0
<2pap>	0
<2pau>	0
<2pck>	0
<2pis>	0
<2pon>	0
<2ppk>	0
<2qu>	0
<2qub>	0
<2quc>	0
<2quf>	0
<2quh>	0
<2qup>	0
<2quy>	0
<2qvc>	0
<2qvi>	0
<2qvz>	0
<2qxr>	0
<2raj>	0
<2rcf>	0
<2rki>	0
<2rm>	0
<2rmc>	0
<2rn>	0
<2rom>	0
<2ru_Latn>	0
<2rwo>	0
<2sa>	0
<2sah>	0
<2sat_Latn>	0
<2sda>	0
<2seh>	0
<2sg>	0
<2shp>	0
<2sja>	0
<2skr>	0
<2sm>	0
<2smt>	0
<2sn>	0
<2spp>	0
<2srm>	0
<2srn>	0
<2ss>	0
<2st>	0
<2stq>	0
<2su>	0
<2sus>	0
<2suz>	0
<2sxn>	0
<2syr>	0
<2ta_Latn>	0
<2tab>	0
<2taj>	0
<2tbz>	0
<2tca>	0
<2tcy>	0
<2tdx>	0
<2te_Latn>	0
<2teo>	0
<2tet>	0
<2ti>	0
<2tiv>	0
<2tks>	0
<2tlh>	0
<2tll>	0
<2tly_IR>	0
<2tn>	0
<2to>	0
<2toj>	0
<2trp>	0
<2ts>	0
<2tsc>	0
<2tsg>	0
<2tuc>	0
<2tvl>	0
<2twu>	0
<2tyv>	0
<2tyz>	0
<2tzh>	0
<2tzj>	0
<2tzo>	0
<2ubu>	0
<2udm>	0
<2ve>	0
<2wal>	0
<2war>	0
<2wo>	0
<2xal>	0
<2yap>	0
<2yua>	0
<2zap>	0
<2zh_Latn>	0
<2zne>	0
<2zza>	0
<2Latn>	0
<2Arab>	0
<2Ethi>	0
<2Beng>	0
<2Cyrl>	0
<2Deva>	0
<2Thaa>	0
<2Tibt>	0
<2Grek>	0
<2Gujr>	0
<2Hebr>	0
<2Armn>	0
<2Cans>	0
<2Jpan>	0
<2Geor>	0
<2Khmr>	0
<2Knda>	0
<2Kore>	0
<2Mlym>	0
<2Mymr>	0
<2Orya>	0
<2Guru>	0
<2Taml>	0
<2Tfng>	0
<2Telu>	0
<2Thai>	0
#N/A	0
<2Hans>	0
<2Hant>	0
<2Cher>	0
<2CA>	0
<2NL>	0
<2RU>	0
<2ZW>	0
<2IR>	0
<mask>	0
<2translate>	0
<2transliterate>	0
<2mass>	0
<2back_translated>	0
<ctrl1>	0
<ctrl2>	0
<ctrl3>	0
<ctrl4>	0
<ctrl5>	0
<ctrl6>	0
<ctrl7>	0
<ctrl8>	0
<ctrl9>	0
<ctrl10>	0
<ctrl11>	0
<ctrl12>	0
<ctrl13>	0
<ctrl14>	0
<ctrl15>	0
<ctrl16>	0
<ctrl17>	0
<ctrl18>	0
<ctrl19>	0
<ctrl20>	0
<ctrl21>	0
<ctrl22>	0
<ctrl23>	0
<ctrl24>	0
<ctrl25>	0
<ctrl26>	0
<ctrl27>	0
<ctrl28>	0
<ctrl29>	0
<ctrl30>	0
<ctrl31>	0
<ctrl32>	0
<ctrl33>	0
<ctrl34>	0
<ctrl35>	0
<ctrl36>	0
<ctrl37>	0
<ctrl38>	0
<ctrl39>	0
<ctrl40>	0
<ctrl41>	0
<ctrl42>	0
<ctrl43>	0
<ctrl44>	0
<ctrl45>	0
<ctrl46>	0
<ctrl47>	0
<ctrl48>	0
<ctrl49>	0
<ctrl50>	0
<0x00>	0
<0x01>	0
<0x02>	0
<0x03>	0
<0x04>	0
<0x05>	0
<0x06>	0
<0x07>	0
<0x08>	0
<0x09>	0
<0x0A>	0
<0x0B>	0
<0x0C>	0
<0x0D>	0
<0x0E>	0
<0x0F>	0
<0x10>	0
<0x11>	0
<0x12>	0
<0x13>	0
<0x14>	0
<0x15>	0
<0x16>	0
<0x17>	0
<0x18>	0
<0x19>	0
<0x1A>	0
<0x1B>	0
<0x1C>	0
<0x1D>	0
<0x1E>	0
<0x1F>	0
<0x20>	0
<0x21>	0
<0x22>	0
<0x23>	0
<0x24>	0
<0x25>	0
<0x26>	0
<0x27>	0
<0x28>	0
<0x29>	0
<0x2A>	0
<0x2B>	0
<0x2C>	0
<0x2D>	0
<0x2E>	0
<0x2F>	0
<0x30>	0
<0x31>	0
<0x32>	0
<0x33>	0
<0x34>	0
<0x35>	0
<0x36>	0
<0x37>	0
<0x38>	0
<0x39>	0
<0x3A>	0
<0x3B>	0
<0x3C>	0
<0x3D>	0
<0x3E>	0
<0x3F>	0
<0x40>	0
<0x41>	0
<0x42>	0
<0x43>	0
<0x44>	0
<0x45>	0
<0x46>	0
<0x47>	0
<0x48>	0
<0x49>	0
<0x4A>	0
<0x4B>	0
<0x4C>	0
<0x4D>	0
<0x4E>	0
<0x4F>	0
<0x50>	0
<0x51>	0
<0x52>	0
<0x53>	0
<0x54>	0
<0x55>	0
<0x56>	0
<0x57>	0
<0x58>	0
<0x59>	0
<0x5A>	0
<0x5B>	0
<0x5C>	0
<0x5D>	0
<0x5E>	0
<0x5F>	0
<0x60>	0
<0x61>	0
<0x62>	0
<0x63>	0
<0x64>	0
<0x65>	0
<0x66>	0
<0x67>	0
<0x68>	0
<0x69>	0
<0x6A>	0
<0x6B>	0
<0x6C>	0
<0x6D>	0
<0x6E>	0
<0x6F>	0
<0x70>	0
<0x71>	0
<0x72>	0
<0x73>	0
<0x74>	0
<0x75>	0
<0x76>	0
<0x77>	0
<0x78>	0
<0x79>	0
<0x7A>	0
<0x7B>	0
<0x7C>	0
<0x7D>	0
<0x7E>	0
<0x7F>	0
<0x80>	0
<0x81>	0
<0x82>	0
<0x83>	0
<0x84>	0
<0x85>	0
<0x86>	0
<0x87>	0
<0x88>	0
<0x89>	0
<0x8A>	0
<0x8B>	0
<0x8C>	0
<0x8D>	0
<0x8E>	0
<0x8F>	0
<0x90>	0
<0x91>	0
<0x92>	0
<0x93>	0
<0x94>	0
<0x95>	0
<0x96>	0
<0x97>	0
<0x98>	0
<0x99>	0
<0x9A>	0
<0x9B>	0
<0x9C>	0
<0x9D>	0
<0x9E>	0
<0x9F>	0
<0xA0>	0
<0xA1>	0
<0xA2>	0
<0xA3>	0
<0xA4>	0
<0xA5>	0
<0xA6>	0
<0xA7>	0
<0xA8>	0
<0xA9>	0
<0xAA>	0
<0xAB>	0
<0xAC>	0
<0xAD>	0
<0xAE>	0
<0xAF>	0
<0xB0>	0
<0xB1>	0
<0xB2>	0
<0xB3>	0
<0xB4>	0
<0xB5>	0
<0xB6>	0
<0xB7>	0
<0xB8>	0
<0xB9>	0
<0xBA>	0
<0xBB>	0
<0xBC>	0
<0xBD>	0
<0xBE>	0
<0xBF>	0
<0xC0>	0
<0xC1>	0
<0xC2>	0
<0xC3>	0
<0xC4>	0
<0xC5>	0
<0xC6>	0
<0xC7>	0
<0xC8>	0
<0xC9>	0
<0xCA>	0
<0xCB>	0
<0xCC>	0
<0xCD>	0
<0xCE>	0
<0xCF>	0
<0xD0>	0
<0xD1>	0
<0xD2>	0
<0xD3>	0
<0xD4>	0
<0xD5>	0
<0xD6>	0
<0xD7>	0
<0xD8>	0
<0xD9>	0
<0xDA>	0
<0xDB>	0
<0xDC>	0
<0xDD>	0
<0xDE>	0
<0xDF>	0
<0xE0>	0
<0xE1>	0
<0xE2>	0
<0xE3>	0
<0xE4>	0
<0xE5>	0
<0xE6>	0
<0xE7>	0
<0xE8>	0
<0xE9>	0
<0xEA>	0
<0xEB>	0
<0xEC>	0
<0xED>	0
<0xEE>	0
<0xEF>	0
<0xF0>	0
<0xF1>	0
<0xF2>	0
<0xF3>	0
<0xF4>	0
<0xF5>	0
<0xF6>	0
<0xF7>	0
<0xF8>	0
<0xF9>	0
<0xFA>	0
<0xFB>	0
<0xFC>	0
<0xFD>	0
<0xFE>	0
<0xFF>	0
▁	-3.18641
,	-3.69161
.	-3.76983
1	-4.81732
-	-4.94881
a	-4.98345
▁a	-5.05201
2	-5.11843
0	-5.19942
'	-5.30279
e	-5.35261
i	-5.37083
s	-5.40814
:	-5.45194
▁na	-5.49947
▁i	-5.64535
n	-5.64819
’	-5.65463
o	-5.69887
▁e	-5.76629
3	-5.80804
▁(	-5.9124
u	-5.92012
▁de	-5.95132
t	-5.97679
4	-6.00815
5	-6.02467
▁ka	-6.02553
ʼ	-6.05515
)	-6.05734
na	-6.11981
9	-6.14544
▁o	-6.21212
▁la	-6.22841
▁ma	-6.26372
6	-6.26548
▁di	-6.28648
7	-6.29255
8	-6.29422
▁ni	-6.31406
▁te	-6.33306
▁u	-6.34124
▁in	-6.37875
?	-6.40858
an	-6.4288
▁sa	-6.44026
ta	-6.5117
▁ta	-6.52155
▁ya	-6.53344
▁“	-6.53803
m	-6.53913
▁ti	-6.54545
▁le	-6.58336
▁ne	-6.61623
I	-6.6172
▁ki	-6.62659
k	-6.6282
▁se	-6.66116
y	-6.67311
▁ba	-6.68238
r	-6.68947
▁da	-6.73581
▁ku	-6.77563
▁ke	-6.78495
ka	-6.80211
▁ko	-6.80552
▁an	-6.82317
ni	-6.83544
la	-6.85057
;	-6.85067
▁nga	-6.85621
▁A	-6.85991
▁si	-6.87436
▁to	-6.87811
h	-6.9034
ˈ	-6.90754
in	-6.91037
▁me	-6.91916
ma	-6.92876
te	-6.93468
▁pa	-6.93483
d	-6.95914
▁wa	-6.96816
▁-	-6.98491
​	-6.99329
l	-6.99647
▁en	-7.0448
▁n	-7.04784
▁li	-7.04833
▁mu	-7.05169
en	-7.07184
ne	-7.07525
­	-7.07534
ti	-7.09374
da	-7.09434
▁ri	-7.11513
▁no	-7.11529
▁be	-7.13137
▁mi	-7.13663
le	-7.15415
ra	-7.16288
▁k	-7.18166
mi	-7.18242
▁ja	-7.19505
▁l	-7.19614
de	-7.21143
▁ha	-7.21416
ga	-7.22835
al	-7.22883
▁do	-7.23421
▁ye	-7.23501
p	-7.25887
▁I	-7.28667
to	-7.30011
ya	-7.30312
а	-7.31626
c	-7.3182
sa	-7.32482
g	-7.32988
▁tu	-7.33331
wa	-7.35136
re	-7.35206
▁mo	-7.35683
si	-7.35803
b	-7.36106
،	-7.36839
”	-7.36911
li	-7.39225
j	-7.39741
se	-7.40282
di	-7.40954
ba	-7.41143
ko	-7.41159
æ	-7.4118
=	-7.4167
pa	-7.41732
▁"	-7.42154
▁so	-7.43205
।	-7.43647
и	-7.45689
▁d	-7.45962
no	-7.46182
ar	-7.466
▁lo	-7.47763
▁ra	-7.48366
!	-7.5125
▁bi	-7.51276
▁hi	-7.51636
▁je	-7.51913
z	-7.53206
ke	-7.53254
w	-7.53635
꞉	-7.54551
▁pe	-7.54626
er	-7.55527
▁c	-7.55646
▁‘	-7.55647
▁ga	-7.5586
ki	-7.56694
/	-7.57268
▁«	-7.58701
▁re	-7.60143
н	-7.60683
▁E	-7.61095
▁y	-7.61113
▁–	-7.61505
е	-7.62565
ri	-7.63826
lo	-7.63977
.”	-7.64515
ʻ	-7.64534
tu	-7.64616
ku	-7.65298
ng	-7.65335
▁he	-7.6656
ha	-7.66884
me	-7.67126
ë	-7.67853
▁un	-7.70135
▁su	-7.71175
ch	-7.71629
on	-7.71973
ö	-7.72729
▁O	-7.72765
▁el	-7.73016
м	-7.7332
ja	-7.73547
es	-7.74289
be	-7.74634
▁ho	-7.75819
un	-7.7654
▁s	-7.76689
▁m	-7.76881
▁kan	-7.77252
ì	-7.77252
▁er	-7.77615
▁fa	-7.78092
▁va	-7.78248
▁nu	-7.78255
▁go	-7.79194
ye	-7.79261
▁du	-7.79301
▁ai	-7.80242
▁ar	-7.80343
go	-7.80495
v	-7.80907
"	-7.81046
▁t	-7.81801
is	-7.82326
as	-7.8234
pi	-7.82486
▁bo	-7.83277
do	-7.83999
▁we	-7.84237
mu	-7.84916
▁ve	-7.84926
man	-7.84947
▁man	-7.8515
▁yo	-7.86154
ro	-7.86211
ca	-7.86354
▁'	-7.86842
▁b	-7.87333
A	-7.87644
yo	-7.87872
▁za	-7.8817
).	-7.88806
ی	-7.89639
il	-7.89649
▁po	-7.89762
mo	-7.89942
▁yi	-7.90195
▁is	-7.90879
í	-7.91451
at	-7.91531
▁que	-7.91664
é	-7.91893
▁S	-7.91949
q	-7.92197
▁и	-7.92761
р	-7.93237
va	-7.93466
▁Ma	-7.93552
у	-7.94551
el	-7.94729
▁و	-7.95135
je	-7.95156
▁Na	-7.96007
▁U	-7.96114
nu	-7.97327
т	-7.97953
▁chi	-7.98964
▁ia	-8.00497
»	-8.00562
x	-8.00953
pe	-8.01445
▁the	-8.01579
ru	-8.01737
lu	-8.02446
gi	-8.02619
bi	-8.0276
ge	-8.03161
▁che	-8.03611
▁of	-8.04054
▁N	-8.0617
▁के	-8.06605
▁dan	-8.06907
ak	-8.07177
it	-8.07595
▁bu	-8.07955
chi	-8.08055
▁на	-8.08425
▁да	-8.08664
▁yu	-8.08831
f	-8.0891
▁at	-8.09379
▁on	-8.09393
▁ca	-8.09894
kan	-8.10987
к	-8.11012
ny	-8.1112
am	-8.12536
▁K	-8.13751
▁La	-8.14537
ă	-8.14609
▁—	-8.15356
▁د	-8.15977
we	-8.17119
ji	-8.17607
▁wi	-8.18074
▁v	-8.1812
▁Ka	-8.18161
▁per	-8.18884
й	-8.19011
ê	-8.19122
za	-8.19515
et	-8.19722
▁ʻ	-8.20779
▁pi	-8.21106
▁M	-8.2111
▁wo	-8.21466
du	-8.22173
ia	-8.22852
да	-8.22907
▁Dios	-8.23242
▁for	-8.23311
▁og	-8.23674
▁and	-8.23692
▁cu	-8.24416
д	-8.24546
zi	-8.24715
▁mai	-8.24769
▁gi	-8.24823
с	-8.25647
ci	-8.25714
wo	-8.2613
G	-8.26397
ы	-8.26464
▁T	-8.26471
bo	-8.26706
ana	-8.27553
ho	-8.28863
▁al	-8.29266
▁den	-8.29288
so	-8.29534
gu	-8.30297
▁para	-8.30363
st	-8.30653
▁fi	-8.30793
...	-8.31094
▁nan	-8.31307
he	-8.31631
Ø	-8.31751
ve	-8.31812
os	-8.31988
wi	-8.31998
▁ang	-8.32842
▁ji	-8.33454
л	-8.33486
vi	-8.33652
yi	-8.33984
▁C	-8.33998
▁lu	-8.34108
▁B	-8.34116
▁mga	-8.34262
hi	-8.34617
nya	-8.34792
，	-8.34942
su	-8.35247
▁et	-8.35327
po	-8.35525
▁ng	-8.36809
ed	-8.36969
▁fu	-8.37384
us	-8.38114
▁ci	-8.38152
і	-8.38506
ce	-8.39154
▁par	-8.39313
E	-8.40812
х	-8.41203
ah	-8.4146
▁gu	-8.42265
г	-8.42757
э	-8.43011
ي	-8.43555
▁Se	-8.43901
▁ge	-8.44016
th	-8.44022
ˬ	-8.44478
▁ch	-8.45015
ن	-8.45045
bu	-8.45258
▁kɛ	-8.45378
ه	-8.45544
▁wan	-8.46392
…	-8.46435
um	-8.46599
▁p	-8.46657
▁as	-8.47053
▁।	-8.47143
▁Ba	-8.47358
tan	-8.47591
о	-8.47754
▁L	-8.47776
O	-8.48016
▁g	-8.48194
▁P	-8.4824
на	-8.48276
ik	-8.49184
S	-8.49733
▁а	-8.50673
▁Ta	-8.50692
▁Sa	-8.51022
ang	-8.51152
fa	-8.51216
dan	-8.51569
co	-8.5167
п	-8.52172
▁dia	-8.52317
hu	-8.52582
▁¿	-8.52793
▁D	-8.53504
▁An	-8.5355
▁ah	-8.54079
á	-8.54228
ju	-8.54582
▁ny	-8.54864
▁ì	-8.5493
▁Si	-8.55927
▁De	-8.56042
▁jo	-8.56168
▁cha	-8.56194
▁é	-8.56219
▁shi	-8.56457
▁à	-8.56634
è	-8.56729
nga	-8.57024
ir	-8.57038
ˇ	-8.57099
ai	-8.57186
▁yang	-8.5765
。	-8.57892
▁om	-8.57949
ing	-8.58219
▁h	-8.58711
ни	-8.58827
的	-8.58855
▁van	-8.59148
ын	-8.59583
▁lɛ	-8.59587
▁ak	-8.60384
C	-8.6057
ш	-8.60756
▁tau	-8.60963
om	-8.61086
▁в	-8.61248
Ù	-8.61294
▁In	-8.61575
ul	-8.61881
wan	-8.62313
vo	-8.62691
▁z	-8.63421
▁kwa	-8.63883
id	-8.64021
em	-8.64417
▁у	-8.64461
▁w	-8.64597
ala	-8.65146
yu	-8.65194
▁ju	-8.65339
▁pou	-8.65383
zo	-8.65475
▁H	-8.65804
▁ro	-8.65991
▁G	-8.66151
و	-8.66198
▁Te	-8.66358
▁ɔ	-8.66396
▁Jesús	-8.66579
▁um	-8.67043
lla	-8.67421
▁die	-8.6756
cha	-8.67561
aj	-8.68183
▁im	-8.68439
ur	-8.6844
क	-8.6852
▁del	-8.68893
▁pu	-8.68947
▁Di	-8.68987
ĕ	-8.69463
та	-8.69647
ны	-8.69698
▁Pa	-8.69848
▁Ja	-8.69958
▁Li	-8.70279
ꞌ	-8.70498
▁mana	-8.70896
▁к	-8.71042
▁ani	-8.71154
ze	-8.71291
▁ay	-8.71449
che	-8.71861
ran	-8.71871
nan	-8.71983
¿½	-8.72262
▁í	-8.72324
▁за	-8.72407
ot	-8.72756
▁sha	-8.73012
▁Ne	-8.73413
га	-8.73625
▁с	-8.73959
ina	-8.74195
▁Le	-8.74419
sh	-8.74444
न	-8.74545
▁vi	-8.74881
▁kai	-8.75031
▁|	-8.75186
pu	-8.75249
▁Ni	-8.75317
sha	-8.75478
ek	-8.75573
nda	-8.75817
▁yn	-8.76014
▁por	-8.7612
▁Ko	-8.76149
▁ru	-8.76271
▁ndi	-8.76581
▁tan	-8.76734
(	-8.76904
à	-8.76995
im	-8.77076
▁co	-8.77082
jo	-8.7711
▁il	-8.77151
▁jun	-8.77187
),	-8.77915
▁hu	-8.77939
uk	-8.77992
M	-8.78087
N	-8.78094
▁Mu	-8.78231
▁ngu	-8.78442
▁Yesu	-8.78501
▁Mi	-8.78567
“	-8.78569
▁ë	-8.78612
ا	-8.78666
▁men	-8.79091
▁xa	-8.79165
▁x	-8.79239
▁Ku	-8.79444
ten	-8.79539
ت	-8.79573
±	-8.79888
я	-8.80007
san	-8.80142
▁Me	-8.80415
fi	-8.8055
▁Ha	-8.80664
or	-8.80739
▁nge	-8.8075
ol	-8.80805
▁hai	-8.81295
▁sang	-8.81486
▁op	-8.81494
▁Ke	-8.81759
▁sin	-8.8189
▁am	-8.8234
▁ال	-8.82461
▁Ya	-8.82803
▁min	-8.83037
▁kuti	-8.83106
ан	-8.8317
ла	-8.83191
▁&	-8.84263
▁xi	-8.84347
ut	-8.84443
lan	-8.84747
den	-8.84902
▁ê	-8.84941
▁در	-8.84986
▁pro	-8.84987
▁j	-8.85019
́	-8.85036
лар	-8.85332
▁nail	-8.8549
▁zi	-8.85637
в	-8.85858
ob	-8.85869
%	-8.85892
ter	-8.86406
han	-8.86675
chu	-8.86873
§	-8.86949
]	-8.87182
م	-8.87221
ч	-8.87249
shi	-8.87882
▁Mo	-8.879
▁á	-8.88275
qa	-8.88682
▁con	-8.88934
▁ana	-8.88992
▁aku	-8.89009
ly	-8.89212
lar	-8.89471
ts	-8.89669
▁tak	-8.89852
ɛ	-8.90174
tha	-8.90287
ди	-8.90315
▁chu	-8.9039
▁wu	-8.90464
▁til	-8.9065
、	-8.90874
ь	-8.90989
▁ek	-8.91008
ita	-8.91074
▁ama	-8.91087
▁не	-8.91125
D	-8.91428
▁lan	-8.91548
▁by	-8.91598
K	-8.92372
ं	-8.924
▁No	-8.92412
men	-8.92568
▁ва	-8.92604
ин	-8.92654
▁ini	-8.93571
▁kon	-8.93954
T	-8.94461
▁vo	-8.94652
▁т	-8.94658
▁V	-8.94829
▁iya	-8.94997
▁Ti	-8.95098
▁han	-8.95286
▁Jesus	-8.95295
_	-8.95715
з	-8.9583
▁bin	-8.95843
▁ou	-8.96087
ndo	-8.96262
lik	-8.96276
▁Re	-8.96534
▁/	-8.96552
ŋ	-8.96646
▁mar	-8.96649
▁आ	-8.9678
cu	-8.97254
ка	-8.97505
س	-8.98094
▁è	-8.9813
▁bɛ	-8.98385
▁To	-8.984
mba	-8.98596
▁leh	-8.98621
fe	-8.98764
त	-8.99279
▁ban	-8.99328
▁ad	-8.99604
б	-8.99701
▁ena	-8.99764
wu	-8.99921
sta	-9.00012
▁qui	-9.00152
ˆ	-9.00314
ма	-9.00352
xi	-9.0042
▁av	-9.00485
fo	-9.00922
▁ac	-9.0112
▁oo	-9.01227
▁Y	-9.01325
▁har	-9.01342
▁ir	-9.01399
B	-9.01551
▁des	-9.02272
▁में	-9.02476
ï	-9.02505
ad	-9.02535
▁„	-9.02853
ll	-9.02941
�	-9.03039
▁Ki	-9.03333
nak	-9.03343
▁una	-9.03422
▁Be	-9.03625
▁ala	-9.03669
▁long	-9.03879
▁Ci	-9.04166
tik	-9.04475
ab	-9.05006
▁се	-9.05387
▁ua	-9.05463
▁les	-9.05596
▁hem	-9.05749
▁ben	-9.05966
ी	-9.0602
ken	-9.06021
▁nou	-9.06166
kin	-9.06229
tin	-9.06235
Na	-9.06387
nt	-9.06476
▁nin	-9.06679
ban	-9.06814
fu	-9.07127
ih	-9.07244
▁R	-9.07285
len	-9.0797
yan	-9.08104
ة	-9.08292
▁ty	-9.08513
+	-9.08605
U	-9.08954
▁F	-9.09096
ɔ	-9.09133
▁ⵏ	-9.09196
ay	-9.09198
▁kar	-9.09241
▁[	-9.09349
ж	-9.09513
—	-9.09535
ej	-9.0974
▁atu	-9.09795
ning	-9.09802
са	-9.09818
▁Da	-9.09888
▁san	-9.09976
▁pre	-9.10067
ste	-9.10223
▁ei	-9.1023
der	-9.1058
▁J	-9.10616
▁të	-9.10843
▁...	-9.11072
thu	-9.11148
ар	-9.11424
tar	-9.1153
े	-9.11697
▁ber	-9.11745
▁سنگ	-9.1197
▁ɛ	-9.11973
▁iz	-9.12163
sen	-9.12267
vu	-9.12507
▁od	-9.1251
que	-9.13109
nin	-9.13482
▁А	-9.13493
ñ	-9.13506
▁Israel	-9.13635
▁So	-9.13664
▁ze	-9.13861
▁au	-9.13905
ç	-9.13922
ama	-9.13937
▁der	-9.14
H	-9.14077
ty	-9.1433
ini	-9.14472
ل	-9.14651
▁fo	-9.14676
kwa	-9.14776
▁it	-9.14813
▁can	-9.14981
▁по	-9.15289
mbo	-9.15367
rin	-9.15624
ata	-9.15864
▁Tu	-9.1615
но	-9.16214
pan	-9.165
?”	-9.16601
▁من	-9.16653
▁ali	-9.16741
ым	-9.16761
ли	-9.16868
ari	-9.16875
▁mas	-9.17097
▁ба	-9.17119
ä	-9.17134
▁به	-9.17196
‘	-9.17293
▁som	-9.17385
tra	-9.17631
▁ọ	-9.17914
dia	-9.17917
▁ب	-9.17925
▁zo	-9.18001
▁det	-9.18042
▁Bu	-9.18244
де	-9.18673
▁din	-9.18732
tak	-9.18901
iya	-9.18904
nd	-9.19092
▁Ri	-9.19121
▁Pe	-9.19161
не	-9.1924
ver	-9.19326
د	-9.19349
oj	-9.19374
▁fe	-9.19448
Ma	-9.19644
▁bir	-9.20058
ok	-9.20227
▁से	-9.2038
▁х	-9.20393
xa	-9.20502
▁fan	-9.20668
ler	-9.20793
qui	-9.20873
ን	-9.20989
▁م	-9.21048
ndi	-9.21052
▁kun	-9.21058
ý	-9.21356
‌	-9.21396
▁С	-9.21477
म	-9.2149
▁Ga	-9.21515
au	-9.21625
ara	-9.21693
▁Wa	-9.21755
▁The	-9.21809
ren	-9.22172
▁son	-9.22348
▁nɛ	-9.22375
▁kom	-9.22733
▁tha	-9.22749
▁tin	-9.22795
ani	-9.22834
ش	-9.22844
▁ut	-9.22995
▁sk	-9.23098
ат	-9.23127
▁ver	-9.23219
の	-9.23291
▁pai	-9.23308
▁tsa	-9.23411
▁ol	-9.23591
▁з	-9.23594
ap	-9.23821
min	-9.24003
▁bann	-9.24306
▁W	-9.2437
gan	-9.24452
▁Ra	-9.2457
▁var	-9.24592
▁En	-9.24659
▁wɔ	-9.24721
thi	-9.24973
▁ada	-9.25058
▁ed	-9.25213
sti	-9.25302
▁ding	-9.25559
ला	-9.25565
ра	-9.25595
ल	-9.2576
▁aba	-9.26053
▁yɛ	-9.26068
gen	-9.26265
ali	-9.26474
„	-9.26622
ات	-9.26665
▁Ar	-9.26677
▁bona	-9.27001
лы	-9.27241
▁El	-9.27281
▁في	-9.27369
▁pan	-9.27483
▁nya	-9.27504
▁gue	-9.27589
▁#	-9.27619
▁Ø	-9.27633
▁f	-9.27699
▁Po	-9.27751
मा	-9.27778
ij	-9.27856
š	-9.27942
▁Fa	-9.28252
▁kam	-9.28321
ти	-9.28346
▁dé	-9.28463
▁ce	-9.28618
▁او	-9.2917
▁naa	-9.29324
▁iti	-9.29338
▁ima	-9.2936
P	-9.29386
nde	-9.29504
gh	-9.29599
tt	-9.29623
▁mba	-9.29775
▁aw	-9.29789
ben	-9.2988
▁nɔ	-9.30002
nen	-9.3015
▁mag	-9.30166
▁ag	-9.30247
▁dat	-9.30249
com	-9.30306
ā	-9.30518
ã	-9.30766
ele	-9.30789
ı	-9.30803
ton	-9.30898
▁God	-9.30974
the	-9.31101
▁»	-9.31122
ña	-9.3121
▁tal	-9.31385
▁maka	-9.31611
kuna	-9.31699
▁क	-9.322
▁kha	-9.3228
сь	-9.32379
ен	-9.32484
zu	-9.32489
ngi	-9.32531
ды	-9.32717
▁Je	-9.32743
kon	-9.32761
▁pag	-9.32817
▁est	-9.32859
▁nak	-9.32903
dy	-9.33364
▁He	-9.33544
स	-9.33588
son	-9.33605
ा	-9.33953
sin	-9.34248
▁Su	-9.34262
▁qu	-9.34323
ал	-9.34406
▁thu	-9.34409
â	-9.34477
▁oku	-9.34491
▁ati	-9.34542
▁med	-9.34657
▁pri	-9.34705
ite	-9.34778
nge	-9.34877
tta	-9.35637
ş	-9.35925
ndu	-9.36029
▁ih	-9.36297
дан	-9.36301
pas	-9.36448
▁Q	-9.36506
▁es	-9.36549
▁sé	-9.36803
–	-9.36842
▁apa	-9.3707
▁Lo	-9.37173
ale	-9.37313
အ	-9.37577
▁dem	-9.37597
▁ese	-9.37683
,”	-9.37853
▁sing	-9.37859
▁lai	-9.37991
ге	-9.38066
▁uku	-9.38109
र	-9.38155
▁Ho	-9.38177
▁på	-9.38247
▁or	-9.38313
་	-9.38735
ان	-9.39067
tsi	-9.39308
▁kana	-9.3959
▁ngo	-9.39646
mbu	-9.39753
▁cho	-9.39856
ó	-9.39945
ene	-9.39994
▁ene	-9.40003
né	-9.40022
या	-9.40038
▁met	-9.4004
kha	-9.40123
▁ken	-9.40217
kar	-9.40462
▁nun	-9.40489
▁cun	-9.40629
▁kay	-9.4066
▁бир	-9.40663
ag	-9.40715
aw	-9.40816
ment	-9.40825
▁ap	-9.40839
▁कि	-9.41038
▁pas	-9.41188
те	-9.41196
ada	-9.41274
▁г	-9.41438
tongo	-9.41476
ри	-9.41509
ты	-9.41534
▁Z	-9.41534
ги	-9.4177
."	-9.42053
tur	-9.42094
▁Ye	-9.42293
cho	-9.42624
▁aka	-9.42709
▁bar	-9.42741
нь	-9.42855
▁kwe	-9.42892
ки	-9.42905
▁та	-9.4304
▁mea	-9.43092
ona	-9.43116
▁У	-9.43329
ria	-9.43465
▁Hi	-9.43542
sia	-9.43581
lɛ	-9.43629
”.	-9.43632
▁К	-9.43667
eu	-9.43915
▁vha	-9.44085
eg	-9.44377
▁aur	-9.44417
ua	-9.44544
mbi	-9.44578
▁Yesus	-9.44578
ም	-9.44582
ngo	-9.44582
▁Bi	-9.44767
ere	-9.44871
▁fer	-9.45039
▁q	-9.45048
▁я	-9.45107
▁taa	-9.45219
▁em	-9.45328
▁ки	-9.45343
ima	-9.45379
tz	-9.45508
hon	-9.45516
▁unu	-9.45714
ب	-9.4583
ie	-9.45929
▁you	-9.4597
▁از	-9.46086
он	-9.46095
tal	-9.46098
bil	-9.46151
mar	-9.46355
ৰ	-9.46577
nar	-9.46616
▁त	-9.46651
▁ts	-9.46727
°	-9.4674
L	-9.46788
ले	-9.46794
▁،	-9.46933
▁Go	-9.46968
nye	-9.4708
ine	-9.47176
tel	-9.47272
▁ה	-9.47391
▁په	-9.47681
▁naj	-9.47748
lang	-9.47827
▁*	-9.47854
ча	-9.47917
iti	-9.47943
▁бу	-9.48107
▁dhe	-9.48145
▁gin	-9.48399
ira	-9.48404
era	-9.48448
个	-9.48648
是	-9.48662
▁blong	-9.48856
ле	-9.48914
ть	-9.48985
▁کے	-9.49012
▁ser	-9.4919
▁س	-9.49215
▁ç	-9.49239
ú	-9.49292
▁nang	-9.49881
ud	-9.50087
ane	-9.50093
▁со	-9.50098
ر	-9.5013
▁taki	-9.50294
¯	-9.50302
tti	-9.50308
▁yan	-9.50355
`	-9.50503
▁Bo	-9.50538
ry	-9.5058
̱	-9.50627
▁eo	-9.50668
aba	-9.50727
nta	-9.50765
ना	-9.50828
का	-9.50862
▁Al	-9.51528
nia	-9.51539
▁agus	-9.51714
ic	-9.51935
kana	-9.51979
\	-9.52009
က	-9.52196
▁nye	-9.5224
les	-9.52372
▁का	-9.52435
ska	-9.52563
†	-9.52606
▁het	-9.52747
▁ت	-9.52752
▁amo	-9.52776
▁，	-9.52783
▁dai	-9.52822
▁qa	-9.52877
▁Nu	-9.53197
ọ	-9.53217
F	-9.53604
▁tra	-9.53629
▁Biblia	-9.53698
ہ	-9.53702
uli	-9.53764
ну	-9.53802
▁با	-9.53805
▁té	-9.53863
▁ee	-9.53986
aq	-9.54455
ram	-9.54535
ky	-9.54813
tes	-9.54836
´	-9.54853
ber	-9.54879
tor	-9.54931
▁पर	-9.54951
▁во	-9.55164
▁جي	-9.55179
▁Do	-9.5521
то	-9.55243
.—	-9.55255
bal	-9.55263
▁kita	-9.5548
▁fɔ	-9.55712
nna	-9.55794
▁af	-9.55809
▁sama	-9.55898
▁Ge	-9.5613
ст	-9.56178
▁kin	-9.56183
té	-9.56218
▁ц	-9.56381
ब	-9.564
Ka	-9.56463
ske	-9.56643
▁uma	-9.56722
▁tama	-9.56771
ት	-9.56798
ura	-9.56798
▁Du	-9.56808
▁е	-9.56856
̀	-9.57196
lin	-9.57279
တ	-9.57361
io	-9.57384
ک	-9.57431
को	-9.57666
▁xe	-9.57669
ов	-9.5773
pen	-9.57779
▁де	-9.58217
taj	-9.5841
van	-9.58443
▁non	-9.5847
ger	-9.58609
bar	-9.58663
▁Lu	-9.58674
V	-9.58733
▁до	-9.58851
kat	-9.59061
မ	-9.59183
▁अ	-9.59243
▁но	-9.59264
▁sy	-9.59364
▁eta	-9.59391
ز	-9.59399
ц	-9.5942
ত	-9.5947
ва	-9.59583
▁і	-9.59657
lah	-9.59838
▁X	-9.59855
ð	-9.59921
mbe	-9.60001
▁nee	-9.60205
ун	-9.60225
ية	-9.60445
▁wali	-9.60467
▁mɛ	-9.60484
▁nei	-9.60536
œ	-9.60634
▁uh	-9.60649
nyi	-9.60723
ф	-9.60746
tsa	-9.60799
·	-9.61143
ee	-9.61287
▁kaj	-9.61474
▁Jehová	-9.61528
▁dy	-9.61582
ক	-9.61582
Y	-9.61754
are	-9.6186
年	-9.6204
dar	-9.62042
ने	-9.62061
wn	-9.62193
ys	-9.62319
▁شکن	-9.62335
▁д	-9.62356
ى	-9.62365
apos	-9.62397
ха	-9.62437
gar	-9.62475
tion	-9.62504
▁tshi	-9.62593
²	-9.62612
▁Za	-9.62754
دا	-9.62781
op	-9.6281
▁are	-9.62818
▁tar	-9.62997
▁ari	-9.63092
▁די	-9.63152
ü	-9.63161
▁lun	-9.63228
▁tur	-9.63266
▁û	-9.63345
ati	-9.63475
▁Jo	-9.63524
ò	-9.63591
og	-9.63594
▁mata	-9.63683
ς	-9.63859
▁lam	-9.63872
ыр	-9.6392
ck	-9.63929
▁Ju	-9.64071
ile	-9.64097
▁ex	-9.64172
‑	-9.64306
ν	-9.64327
▁те	-9.64346
ena	-9.64376
ig	-9.64389
▁•	-9.64537
▁Bible	-9.64549
lai	-9.6457
aga	-9.6464
xe	-9.6481
от	-9.64813
▁las	-9.6496
nik	-9.64982
▁را	-9.65185
ай	-9.65222
▁don	-9.65231
▁о	-9.65365
▁në	-9.65376
▁Yehowa	-9.65588
▁tla	-9.65603
प	-9.6569
▁Chi	-9.65905
▁kum	-9.65927
*	-9.65932
▁са	-9.65965
tho	-9.6602
▁iha	-9.66155
▁bad	-9.66222
kwe	-9.66259
▁mwa	-9.66288
isi	-9.66299
ž	-9.6636
ك	-9.66415
▁от	-9.66671
▁anu	-9.66793
▁အ	-9.66874
व	-9.66986
▁Co	-9.67052
ili	-9.67061
▁may	-9.67079
W	-9.67084
ता	-9.67104
ssa	-9.67138
۔	-9.67297
ela	-9.67309
▁id	-9.67325
una	-9.6749
ong	-9.67496
oku	-9.67646
▁dong	-9.67729
▁Per	-9.67824
▁zu	-9.67891
না	-9.67921
R	-9.67969
▁Ca	-9.68017
ant	-9.68163
ano	-9.68187
”,	-9.6823
ε	-9.68252
yon	-9.68414
án	-9.68519
▁nia	-9.68615
▁kä	-9.68617
ida	-9.68672
人	-9.68937
▁pen	-9.69021
▁amin	-9.69102
▁los	-9.69104
▁Pi	-9.692
း	-9.69206
▁San	-9.69354
yn	-9.6941
̣	-9.69452
nie	-9.69466
▁کی	-9.69482
ې	-9.69574
▁dari	-9.69577
▁ñi	-9.69721
▁Mar	-9.69843
ach	-9.69858
▁Va	-9.69913
ል	-9.69947
eh	-9.69971
▁mpo	-9.7004
▁О	-9.70087
ré	-9.70093
▁bia	-9.70099
▁een	-9.70164
.+	-9.70241
!”	-9.70335
▁nde	-9.70364
▁ara	-9.70443
▁हो	-9.70455
▁dee	-9.70796
▁och	-9.7081
³	-9.70846
mal	-9.7097
▁Vi	-9.70997
▁nā	-9.71005
▁was	-9.71009
▁म	-9.71073
▁།	-9.71089
kka	-9.71095
ké	-9.7114
▁itu	-9.71174
си	-9.71335
▁lé	-9.71421
▁ол	-9.71462
ou	-9.71491
ngu	-9.71538
▁awọn	-9.71661
▁Yehova	-9.71925
isa	-9.71957
▁az	-9.72003
▁स	-9.72135
bat	-9.72219
▁که	-9.72241
mat	-9.72271
▁ч	-9.7228
ದ	-9.72419
▁iyo	-9.7251
▁pour	-9.72549
▁tse	-9.72555
ñe	-9.72605
ire	-9.72645
▁eb	-9.72661
▁bhai	-9.72674
▁καὶ	-9.72967
▁tam	-9.72986
aka	-9.73013
aa	-9.73023
▁ita	-9.73044
за	-9.73139
го	-9.73202
▁nag	-9.73264
лан	-9.7328
им	-9.73296
▁لە	-9.73415
¨	-9.73469
▁И	-9.73505
lam	-9.73528
▁éí	-9.73554
▁ea	-9.7356
eb	-9.73606
ем	-9.73615
ven	-9.73685
▁Hu	-9.73751
▁com	-9.73774
▁lau	-9.73897
▁Jehovah	-9.73971
tte	-9.73973
nte	-9.74038
이	-9.74058
▁umu	-9.74164
ib	-9.74177
▁В	-9.74232
lle	-9.74291
J	-9.74334
ः	-9.74364
iz	-9.74436
▁th	-9.74467
ide	-9.74671
▁zot	-9.74713
yen	-9.74721
▁የ	-9.74771
▁David	-9.74892
jan	-9.74905
ac	-9.75039
▁Jehova	-9.75047
▁ngan	-9.75202
▁پر	-9.75265
▁است	-9.75275
by	-9.75349
▁ale	-9.75437
ron	-9.75469
дин	-9.7547
ና	-9.75479
mana	-9.75483
▁од	-9.75527
she	-9.75653
▁Size	-9.75753
▁hin	-9.75819
asi	-9.7593
▁Cristo	-9.75966
▁xu	-9.75974
▁oli	-9.76027
ila	-9.76073
ks	-9.76142
▁Т	-9.76163
▁iki	-9.76182
dzi	-9.76196
▁бар	-9.76383
ɣ	-9.76394
র	-9.76494
▁kara	-9.76582
▁war	-9.76599
rang	-9.76614
▁mei	-9.76661
▁emi	-9.7674
▁era	-9.76808
▁ata	-9.7686
чи	-9.77024
▁dengan	-9.77033
lem	-9.77064
ker	-9.77104
▁bisa	-9.77169
ъ	-9.7729
▁nie	-9.77454
▁Yo	-9.77462
▁oni	-9.77541
ting	-9.77636
gun	-9.77817
".	-9.7797
kho	-9.7802
▁lao	-9.78033
res	-9.78065
tas	-9.78155
▁asa	-9.78199
▁ot	-9.78359
».	-9.78376
▁matters	-9.78393
▁oh	-9.78459
▁und	-9.78469
pis	-9.78521
▁muna	-9.78527
▁dɛn	-9.78671
▁ona	-9.78717
des	-9.78719
▁ren	-9.78751
mm	-9.78786
▁п	-9.78801
▁sam	-9.78815
pha	-9.78833
тар	-9.78992
▁ل	-9.79039
ling	-9.79095
च	-9.79246
▁fai	-9.79343
▁ten	-9.79395
इ	-9.79729
nyo	-9.79856
ып	-9.7986
有	-9.79864
▁dalam	-9.7987
▁एक	-9.79891
▁faka	-9.79907
anga	-9.79931
▁air	-9.79945
▁kuma	-9.7997
▁manga	-9.79983
nja	-9.80052
dh	-9.80237
▁ora	-9.80243
ii	-9.80313
▁wà	-9.80341
î	-9.8038
sto	-9.80522
ui	-9.80647
▁að	-9.8072
imi	-9.80732
ме	-9.80733
▁kala	-9.80777
olo	-9.8078
dir	-9.80935
پ	-9.80991
▁aj	-9.81178
▁her	-9.81187
Ba	-9.8134
ے	-9.81349
▁дар	-9.81359
•	-9.81376
▁Ù	-9.81402
kun	-9.81422
▁tou	-9.81639
kɛ	-9.81699
ner	-9.81762
▁kaba	-9.81772
▁mat	-9.81833
ку	-9.81865
▁orang	-9.8192
ns	-9.81928
▁Allah	-9.81931
per	-9.82023
▁As	-9.8218
õ	-9.82195
lé	-9.82195
▁mama	-9.8224
▁bara	-9.82247
▁my	-9.82254
▁We	-9.82512
▁mun	-9.82542
▁Yu	-9.82547
nam	-9.82574
ган	-9.82585
▁nda	-9.82598
ich	-9.82729
ի	-9.82796
▁nọ	-9.82834
▁bon	-9.82835
▁ná	-9.82844
▁kau	-9.82853
ю	-9.82887
ster	-9.82894
▁ב	-9.83129
▁toy	-9.83264
ف	-9.8329
лер	-9.83315
дар	-9.83393
▁sɛ	-9.83506
▁tun	-9.83617
ski	-9.83697
ми	-9.83708
Ta	-9.83745
ei	-9.83853
nne	-9.83895
ق	-9.8392
гъа	-9.8394
rum	-9.84045
▁М	-9.84098
▁anak	-9.84113
▁ebe	-9.84254
ом	-9.8426
▁laj	-9.84327
▁bé	-9.84426
ስ	-9.84433
▁Ang	-9.8455
num	-9.84563
ttu	-9.8457
▁და	-9.84787
mer	-9.84827
▁xin	-9.84838
kh	-9.84841
▁idia	-9.84843
can	-9.84891
▁jing	-9.84922
▁maa	-9.84973
‡	-9.84985
▁dal	-9.85002
▁Gi	-9.85036
manta	-9.85071
ov	-9.8512
▁न	-9.85147
ो	-9.85185
▁tre	-9.85235
kai	-9.85306
С	-9.85322
ĩ	-9.85324
▁व	-9.85412
эм	-9.85666
▁ane	-9.85761
ন	-9.85797
sar	-9.85835
大	-9.85919
ер	-9.85922
▁apo	-9.86032
las	-9.86149
▁sara	-9.86257
▁ug	-9.86288
▁kat	-9.86317
：	-9.86347
▁aga	-9.86385
ika	-9.86551
ole	-9.86609
▁sta	-9.86646
ам	-9.86649
▁asi	-9.86653
ር	-9.86773
ù	-9.86789
ज	-9.86852
을	-9.86877
ring	-9.86919
▁Jesu	-9.8693
▁qi	-9.87014
▁huan	-9.87017
asa	-9.87048
▁sok	-9.87146
ꞈ	-9.87315
par	-9.87328
ল	-9.8737
▁ter	-9.87387
var	-9.87403
SS	-9.87408
ers	-9.87419
eng	-9.87446
▁nih	-9.87456
▁Jisas	-9.87601
din	-9.87629
syon	-9.87761
ба	-9.87773
▁बा	-9.87835
llu	-9.87836
▁þe	-9.87971
ে	-9.87973
ий	-9.87981
▁ẹ	-9.87986
▁دا	-9.8806
▁bʌ	-9.88081
▁Nga	-9.88094
ris	-9.88157
रा	-9.88183
▁Man	-9.88207
▁ina	-9.88223
»,	-9.88292
don	-9.88305
mai	-9.8831
▁shu	-9.88327
wen	-9.88375
ون	-9.8841
▁hpe	-9.88571
ה	-9.88574
▁mon	-9.88644
य	-9.88676
▁sia	-9.88802
▁Wi	-9.88891
▁है	-9.88893
▁gen	-9.88991
dhi	-9.89005
nis	-9.89027
▁mit	-9.8913
▁nyang	-9.8926
qu	-9.89266
das	-9.89278
ال	-9.89327
▁ɨ	-9.89494
mas	-9.89579
▁sai	-9.89619
▁nyan	-9.8963
manda	-9.89638
tre	-9.89638
лик	-9.89641
▁ا	-9.89647
▁oko	-9.89717
▁Sign	-9.8974
▁sem	-9.89753
▁mɔ	-9.89798
▁sink	-9.89798
▁pada	-9.89803
री	-9.89831
▁جو	-9.89979
▁Ro	-9.89997
sy	-9.89998
://	-9.90012
▁dua	-9.90132
▁mɔɔ	-9.90147
tam	-9.90148
▁Isa	-9.90179
anna	-9.90192
сы	-9.90318
▁میں	-9.90383
▁می	-9.90431
▁rau	-9.90527
▁की	-9.9053
ax	-9.90714
ро	-9.90734
dza	-9.90755
jen	-9.90769
▁akan	-9.90779
چ	-9.90806
▁$	-9.90849
mwe	-9.90911
▁Ch	-9.91069
▁waa	-9.91092
win	-9.91101
nji	-9.91172
rt	-9.91201
war	-9.91217
▁sar	-9.91218
hua	-9.91354
▁Language	-9.91395
PS	-9.91401
▁cov	-9.91404
▁الم	-9.91429
lak	-9.91478
ise	-9.91488
met	-9.91513
nom	-9.91539
▁ako	-9.91592
▁Pablo	-9.91657
ке	-9.91699
▁mein	-9.91828
pon	-9.91931
▁os	-9.91938
▁masa	-9.91948
▁kho	-9.91966
▁Pu	-9.91975
ɑ	-9.92001
aya	-9.92014
ج	-9.92082
ها	-9.92088
▁کو	-9.9225
▁उ	-9.9228
ह	-9.92474
ट	-9.92564
lon	-9.9259
dos	-9.92654
▁bidi	-9.92678
▁Comam	-9.92695
▁baka	-9.9275
▁gore	-9.92788
▁bua	-9.92796
▁pung	-9.92814
ete	-9.92844
tos	-9.92851
ula	-9.92894
▁sur	-9.9291
nn	-9.92911
▁कर	-9.92977
▁pod	-9.92993
▁ما	-9.93001
lli	-9.93008
▁dah	-9.9302
▁khi	-9.93035
лу	-9.93058
▁ira	-9.93213
▁>	-9.93262
▁wen	-9.93264
▁isi	-9.93287
ການ	-9.93325
usi	-9.9335
▁በ	-9.93371
ná	-9.93405
▁sum	-9.93411
▁‵	-9.93502
▁wei	-9.93506
▁б	-9.93578
▁Is	-9.93599
▁ма	-9.93663
▁प	-9.93751
▁kei	-9.9378
Mi	-9.93868
▁with	-9.94001
།	-9.9403
X	-9.94041
在	-9.94102
▁abi	-9.94196
ло	-9.94221
▁ф	-9.94228
▁sto	-9.94301
▁oj	-9.94355
▁nna	-9.94374
▁ар	-9.94395
ა	-9.94407
▁mara	-9.94518
sak	-9.94582
cia	-9.94637
▁eh	-9.94654
▁nem	-9.94712
▁છે	-9.94796
▁και	-9.94816
▁ein	-9.94819
up	-9.94916
▁jin	-9.94969
▁pra	-9.94975
▁baa	-9.94976
ο	-9.95046
û	-9.95152
▁ila	-9.95154
▁بە	-9.95194
▁ج	-9.95237
▁ngi	-9.95244
ore	-9.95253
▁Г	-9.95262
mon	-9.95311
ate	-9.95347
rak	-9.95374
α	-9.95437
ите	-9.957
ix	-9.95753
▁Un	-9.95803
А	-9.95839
ين	-9.95908
ą	-9.95952
dde	-9.96058
▁Ru	-9.96072
sk	-9.96101
▁vy	-9.96146
mak	-9.9629
La	-9.96309
▁mala	-9.96343
▁П	-9.96344
▁å	-9.96377
▁soo	-9.96502
▁аз	-9.96545
▁anga	-9.96569
▁kia	-9.96655
pai	-9.96798
▁vu	-9.96908
Me	-9.96913
эр	-9.96936
▁eng	-9.96969
ပ	-9.96975
sam	-9.96978
▁این	-9.96982
зы	-9.97051
▁Pro	-9.97103
의	-9.97149
▁tɨ	-9.97287
къ	-9.97345
▁ing	-9.9739
ম	-9.97402
▁mal	-9.97427
▁bang	-9.9747
▁Il	-9.97492
rat	-9.97526
bel	-9.97531
aki	-9.97653
tse	-9.97661
一	-9.97669
",	-9.9768
▁mau	-9.97709
tis	-9.97762
fer	-9.97779
dha	-9.97798
▁vaka	-9.97836
od	-9.97845
ыс	-9.97939
▁ن	-9.98037
▁tü	-9.98174
▁hun	-9.98175
SD	-9.9818
sse	-9.98249
ción	-9.98339
nes	-9.98357
▁ह	-9.98374
▁ewe	-9.984
▁ame	-9.98485
▁that	-9.98503
lig	-9.98509
▁kev	-9.98551
ᑦ	-9.98652
ия	-9.98656
။	-9.98667
▁Juan	-9.98713
ן	-9.98735
av	-9.98789
▁је	-9.98828
▁دی	-9.98876
▁پ	-9.98952
pin	-9.9906
▁ono	-9.99117
▁Gu	-9.9921
тан	-9.99228
▁kal	-9.99247
oni	-9.99262
▁को	-9.993
▁wie	-9.9942
▁ⴷ	-9.99499
kal	-9.99566
▁nke	-9.99594
ē	-9.99735
に	-9.99823
mp	-9.99825
▁mak	-9.99906
wal	-9.99963
lis	-10
ola	-10.0005
▁ami	-10.0013
▁bay	-10.0018
ң	-10.0019
▁jan	-10.002
▁бо	-10.0021
▁ته	-10.0022
▁ring	-10.0023
▁ngaol	-10.0024
▁ab	-10.0027
lama	-10.0031
xo	-10.0032
ад	-10.0046
▁ó	-10.0049
аш	-10.0062
▁tä	-10.0063
est	-10.007
▁sira	-10.0077
ә	-10.0079
▁lang	-10.0083
rai	-10.0087
▁zhi	-10.0088
lay	-10.0092
ев	-10.0094
kt	-10.0104
BS	-10.0108
эн	-10.0115
▁sou	-10.0117
ser	-10.0119
▁tlen	-10.012
ô	-10.0121
nti	-10.0132
▁waka	-10.0132
Q	-10.0143
▁из	-10.0146
ӣ	-10.0148
ରେ	-10.0148
dor	-10.0154
▁hui	-10.0157
▁dei	-10.0161
kom	-10.0166
Ne	-10.0167
ର	-10.0169
▁sak	-10.0171
ft	-10.0178
▁usa	-10.018
▁wat	-10.0181
၊	-10.0182
ында	-10.0186
ген	-10.0207
tic	-10.0209
▁kag	-10.0215
▁Wo	-10.0218
ike	-10.0219
чу	-10.0221
▁ili	-10.0233
▁آسیاب	-10.0241
хэм	-10.0247
ах	-10.0253
ras	-10.0262
▁chay	-10.0264
one	-10.0264
▁Ve	-10.0265
dd	-10.0269
½	-10.0269
tek	-10.0276
bha	-10.028
би	-10.029
DC	-10.0301
ि	-10.0304
▁ف	-10.0314
kam	-10.0317
се	-10.0331
▁douk	-10.0333
▁aki	-10.0341
▁lub	-10.0344
▁ਹੈ	-10.0346
▁untuk	-10.0352
▁kwi	-10.0361
nje	-10.0364
လၢ	-10.0364
LC	-10.0371
щ	-10.0373
▁mach	-10.0374
▁aa	-10.0377
ই	-10.0377
▁то	-10.0384
▁מ	-10.0391
▁hari	-10.0393
▁Б	-10.0399
ގެ	-10.041
▁ida	-10.0415
sion	-10.0422
sang	-10.0426
dda	-10.0426
ⵜ	-10.043
bin	-10.0436
uri	-10.0439
▁sie	-10.044
lwa	-10.0441
বা	-10.0445
▁ur	-10.0446
ym	-10.045
mos	-10.045
oo	-10.0453
uma	-10.0454
▁dha	-10.0454
ман	-10.0454
лары	-10.0456
▁për	-10.0462
▁nam	-10.0462
を	-10.0466
▁saa	-10.0466
द	-10.0467
č	-10.0468
▁է	-10.0469
ली	-10.0477
nɛ	-10.0478
vel	-10.0494
▁हे	-10.05
ს	-10.0503
▁yen	-10.0508
pat	-10.0512
tir	-10.0519
▁برای	-10.0529
Sa	-10.0537
▁æ	-10.054
نا	-10.0541
▁wai	-10.0545
lia	-10.0546
▁bala	-10.055
▁ob	-10.0555
ż	-10.0561
tay	-10.0571
नी	-10.0573
©	-10.0574
▁Ala	-10.0578
ند	-10.0582
▁toe	-10.0583
nas	-10.0588
के	-10.0603
ung	-10.0606
▁ہے	-10.0607
ကို	-10.0613
ру	-10.0615
ން	-10.0618
mes	-10.0622
ша	-10.0629
▁ك	-10.0635
kala	-10.0636
▁اور	-10.0638
▁Бу	-10.0641
че	-10.0648
ez	-10.0653
▁from	-10.0665
▁iba	-10.0666
org	-10.0667
▁RTI	-10.0672
▁бер	-10.0675
▁ي	-10.0682
ngan	-10.0683
▁hana	-10.0693
wana	-10.0699
maa	-10.0703
नि	-10.0706
▁gui	-10.0706
▁ras	-10.0707
ні	-10.0707
▁bak	-10.0717
¸	-10.0719
taka	-10.0719
▁چې	-10.072
ە	-10.0723
mit	-10.0728
▁dis	-10.0732
▁+	-10.0737
&	-10.0741
လ	-10.0743
ní	-10.0744
▁”	-10.0744
oc	-10.0749
▁。	-10.0751
ug	-10.0752
▁ths	-10.0753
€	-10.0758
▁pun	-10.0765
ex	-10.077
▁Fi	-10.0772
▁ham	-10.0775
|	-10.0777
▁про	-10.0778
▁जा	-10.078
▁gaw	-10.0783
▁му	-10.0791
rik	-10.0793
ue	-10.0795
ey	-10.0809
▁деп	-10.0816
aⁿ	-10.0818
▁Dan	-10.0819
nek	-10.0819
▁mpe	-10.0824
▁mek	-10.0824
▁wala	-10.0826
ор	-10.0828
ն	-10.0833
　	-10.084
val	-10.0843
rá	-10.0844
ß	-10.0854
Ha	-10.0866
▁tai	-10.0868
▁على	-10.0872
hen	-10.088
▁च	-10.088
▁oi	-10.0881
▁yon	-10.0884
nni	-10.0887
az	-10.0906
።	-10.0906
▁mam	-10.0914
tro	-10.0925
▁при	-10.0927
वा	-10.0929
▁anda	-10.093
ble	-10.0935
▁dzi	-10.0937
jar	-10.0941
Z	-10.0944
taa	-10.0944
рэ	-10.0947
▁bana	-10.0951
eri	-10.0953
kel	-10.0953
了	-10.0955
¡	-10.0956
dam	-10.0958
▁sala	-10.0958
▁kā	-10.0963
▁ў	-10.0964
▁nopa	-10.0969
LS	-10.0973
▁pat	-10.0973
mata	-10.0977
▁kua	-10.0977
▁ме	-10.0981
ға	-10.0982
▁une	-10.0984
ет	-10.0997
ntu	-10.0998
▁att	-10.1008
nim	-10.1011
ito	-10.1016
ent	-10.1018
▁На	-10.1021
ј	-10.1026
▁کا	-10.1029
gal	-10.1031
သ	-10.1033
ende	-10.1036
▁reta	-10.104
▁rẹ	-10.1051
àn	-10.1054
▁ika	-10.1058
net	-10.1063
▁mang	-10.1065
▁Ji	-10.1072
iki	-10.1072
▁bụ	-10.1082
▁mate	-10.1083
▁کې	-10.1083
▁enn	-10.1091
▁hag	-10.1103
land	-10.1106
жа	-10.111
▁Jesucristo	-10.1113
▁hong	-10.1113
▁ano	-10.1117
▁های	-10.1147
▁Х	-10.115
эу	-10.115
idi	-10.115
ava	-10.1157
▁nen	-10.1159
▁kas	-10.1162
▁dar	-10.1171
▁kaa	-10.1183
▁आउ	-10.1184
▁sal	-10.1185
▁Pedro	-10.1187
hin	-10.1187
ак	-10.1192
ẹ	-10.1197
ip	-10.1199
▁rai	-10.12
tok	-10.1208
ड	-10.1217
不	-10.1217
ның	-10.1219
፡	-10.1223
▁ete	-10.1226
waa	-10.1227
▁she	-10.1234
µ	-10.1234
▁ndo	-10.1236
ग	-10.1237
▁mé	-10.1244
let	-10.1244
iga	-10.1245
▁tri	-10.1254
ир	-10.1269
ilo	-10.1273
बा	-10.1273
▁On	-10.1276
ša	-10.1276
ту	-10.1283
▁bhi	-10.1283
ил	-10.1284
▁sun	-10.129
▁oyo	-10.1292
hla	-10.1303
▁اس	-10.1305
▁dóó	-10.1313
▁Fe	-10.1315
▁naka	-10.1317
▁mah	-10.1319
mpi	-10.1321
zan	-10.1328
▁Con	-10.1338
▁Ama	-10.134
К	-10.1343
cht	-10.1345
Pa	-10.1355
▁yak	-10.136
▁bɔ	-10.1361
uh	-10.1361
▁hua	-10.1362
▁kuba	-10.1376
̃	-10.1377
▁but	-10.1387
▁mme	-10.1389
से	-10.1395
ist	-10.1397
Si	-10.1398
lum	-10.1399
▁gan	-10.1403
lei	-10.1409
▁nti	-10.141
sun	-10.1414
kas	-10.1417
▁kata	-10.1423
bra	-10.1427
ɨ	-10.1436
ው	-10.1437
hat	-10.1438
ami	-10.1439
▁kpa	-10.1446
alo	-10.1452
▁hal	-10.1454
ور	-10.1464
és	-10.1475
ი	-10.1477
▁इ	-10.1485
af	-10.1486
lt	-10.1487
▁lei	-10.1488
▁rü	-10.149
▁mbi	-10.1495
▁gia	-10.1497
ယ	-10.1506
ding	-10.1507
▁Er	-10.1511
▁chan	-10.1516
▁yin	-10.1521
上	-10.1523
中	-10.1524
ас	-10.1527
ရ	-10.153
▁ile	-10.1531
ulu	-10.1535
ына	-10.1536
▁iye	-10.1538
▁yé	-10.154
▁zai	-10.1544
yin	-10.1547
▁jadi	-10.1558
▁qo	-10.1558
تا	-10.157
▁kare	-10.158
run	-10.1589
ул	-10.1593
▁ilo	-10.1597
গী	-10.16
▁dit	-10.1602
։	-10.1613
ব	-10.1625
ux	-10.1627
▁maj	-10.163
（	-10.1631
tai	-10.1636
▁May	-10.1637
▁Kan	-10.1641
amu	-10.1641
▁papa	-10.1642
▁Ana	-10.1643
▁New	-10.1645
nih	-10.1653
ado	-10.1654
▁Par	-10.1655
jin	-10.166
yang	-10.1662
▁asin	-10.1664
ł	-10.1666
▁în	-10.167
adi	-10.167
gua	-10.1676
Te	-10.1685
рт	-10.1687
▁sim	-10.1688
å	-10.1693
ato	-10.17
до	-10.1707
ко	-10.1714
cion	-10.1723
ista	-10.1741
ನ	-10.1752
ên	-10.1759
rd	-10.1764
▁all	-10.1769
▁amu	-10.1772
▁és	-10.1774
iko	-10.1776
leng	-10.1779
dre	-10.178
Ja	-10.1784
▁ал	-10.1787
iri	-10.179
▁bee	-10.1796
▁tok	-10.181
nto	-10.1814
▁ان	-10.1818
мы	-10.1825
bang	-10.1828
▁ਦੇ	-10.1833
▁aya	-10.1842
mɛ	-10.1845
འི་	-10.1846
▁fon	-10.1857
▁ई	-10.1857
▁taudia	-10.1859
▁dao	-10.1865
▁Den	-10.1869
▁lalu	-10.1873
lim	-10.1875
▁ве	-10.1878
[	-10.1881
хэр	-10.1884
Ku	-10.1885
मे	-10.1885
‹	-10.1888
ರ	-10.189
dik	-10.1892
leri	-10.1893
ста	-10.19
gin	-10.19
cy	-10.1908
▁су	-10.1913
tia	-10.1915
▁xo	-10.1924
vin	-10.1933
दा	-10.1933
chin	-10.1934
។	-10.1934
▁dekenai	-10.1943
▁nyi	-10.1949
ನ್	-10.1954
▁dë	-10.1956
dang	-10.1963
▁jar	-10.1965
▁Д	-10.1965
ана	-10.1975
▁नि	-10.1977
tum	-10.1979
ден	-10.1984
用	-10.1986
mani	-10.1993
▁أ	-10.1996
tso	-10.2
▁ton	-10.2002
▁basa	-10.2007
▁tek	-10.2011
▁hta	-10.2033
▁uz	-10.2035
dra	-10.2037
▁pin	-10.2037
vis	-10.2038
ero	-10.2038
는	-10.2047
xu	-10.2051
▁Kon	-10.2053
خ	-10.2054
▁zhong	-10.2059
long	-10.206
▁ку	-10.206
▁ie	-10.2061
▁iri	-10.2064
▁vei	-10.2069
▁kama	-10.2075
▁dehn	-10.2082
.”—	-10.2088
mane	-10.2093
▁dina	-10.2097
fan	-10.21
▁צו	-10.2103
ལ་	-10.2104
▁Nzambi	-10.2105
tang	-10.2109
▁Dia	-10.211
▁adi	-10.2112
▁ola	-10.2114
▁መ	-10.2119
lat	-10.212
▁lah	-10.2138
માં	-10.2151
ль	-10.2152
zh	-10.2156
lh	-10.2158
ում	-10.2163
jel	-10.2164
▁vai	-10.2168
ئ	-10.2169
▁ɖe	-10.2173
lok	-10.2191
ëŠ	-10.2193
▁·	-10.2193
▁caw	-10.2201
ī	-10.2206
▁Bar	-10.2209
▁thi	-10.2212
˜	-10.2213
BODY	-10.222
▁kina	-10.2221
ብ	-10.2237
DLID	-10.2241
ը	-10.2244
▁lea	-10.2245
мо	-10.2252
mun	-10.2252
▁kasa	-10.2253
▁ɛn	-10.2257
▁có	-10.2262
tus	-10.2263
य्	-10.2264
sch	-10.2268
ع	-10.2268
kata	-10.2271
utu	-10.2275
▁yog	-10.2278
ff	-10.2278
▁Sam	-10.228
▁ayeke	-10.2283
kolo	-10.2288
▁تا	-10.2296
▁си	-10.2298
▁size	-10.2306
▁edi	-10.2314
▁र	-10.2324
▁nú	-10.2325
▁Ver	-10.2328
▁tana	-10.2332
ddi	-10.2333
▁ब	-10.2338
▁Et	-10.2341
▁agu	-10.2345
ના	-10.2348
mente	-10.2351
▁bun	-10.2352
▁vae	-10.2352
▁ду	-10.2353
̈	-10.2355
▁ک	-10.2356
gue	-10.236
ub	-10.2362
con	-10.2362
が	-10.2365
sya	-10.2366
▁yéetel	-10.2372
▁ин	-10.2383
atu	-10.2384
gon	-10.2385
▁pia	-10.2387
▁मे	-10.2389
eli	-10.2389
▁yɔ	-10.24
▁تو	-10.2401
ം	-10.2404
सी	-10.241
▁۽	-10.2417
sel	-10.242
▁Ani	-10.2423
▁tso	-10.2427
▁lava	-10.243
▁fana	-10.2431
‍	-10.2434
ə	-10.2434
ца	-10.2437
ре	-10.2441
▁pea	-10.2442
▁say	-10.2443
tri	-10.2446
ori	-10.2447
llo	-10.2448
ой	-10.2454
တၢ်	-10.2456
에	-10.2459
▁Cu	-10.246
чы	-10.2461
▁kada	-10.2462
uj	-10.2463
del	-10.2466
▁ⵉ	-10.2467
▁kami	-10.2469
ү	-10.2481
▁como	-10.2486
dat	-10.2488
▁Che	-10.2489
ese	-10.2492
nce	-10.2495
▁yoo	-10.2503
▁ад	-10.2505
ست	-10.251
▁mil	-10.251
stu	-10.2523
ланы	-10.2528
кс	-10.2532
lek	-10.2535
ण	-10.2537
▁pli	-10.2538
▁tel	-10.2539
ssi	-10.2542
▁dang	-10.2543
▁Ak	-10.2545
▁aan	-10.2546
ation	-10.2546
па	-10.2551
лык	-10.2555
月	-10.2558
▁niya	-10.256
ley	-10.2561
▁mid	-10.2567
▁tɔn	-10.2572
▁па	-10.2573
）	-10.2576
▁sei	-10.2576
▁या	-10.2578
▁esas	-10.2579
bet	-10.2583
ғ	-10.2585
▁thei	-10.2592
▁sane	-10.2599
ረ	-10.26
▁۾	-10.26
▁von	-10.2602
ति	-10.2604
kum	-10.2605
▁fra	-10.2608
▁swi	-10.2618
は	-10.2628
ppe	-10.263
▁online	-10.2633
▁ok	-10.2633
・	-10.2635
tat	-10.2637
ρ	-10.2637
▁ל	-10.2643
sten	-10.2646
▁pal	-10.2648
lı	-10.265
့	-10.265
#	-10.265
▁pot	-10.2652
▁bha	-10.2652
zen	-10.2656
də	-10.2659
ते	-10.266
▁Qaalaa	-10.2661
▁Tuhan	-10.2661
▁bengaluru	-10.2663
ыл	-10.2664
وں	-10.2668
▁us	-10.2669
▁hen	-10.2671
▁प्र	-10.2676
ši	-10.2677
ше	-10.2677
gala	-10.2683
▁tapi	-10.2683
가	-10.2684
An	-10.2684
lá	-10.2697
pala	-10.27
los	-10.2704
ğ	-10.2704
▁ای	-10.2705
▁manda	-10.2711
▁Kristus	-10.2716
▁जे	-10.2723
▁sani	-10.2725
▁मा	-10.2731
ላ	-10.2731
ⵏ	-10.2738
ipa	-10.2743
▁छ	-10.2747
▁!	-10.275
gui	-10.2755
म्	-10.2757
ים	-10.2767
rit	-10.2773
▁koo	-10.2774
eni	-10.2776
▁fin	-10.2777
gwa	-10.2782
▁án	-10.2784
▁און	-10.2784
ня	-10.2786
▁ви	-10.2787
▁tena	-10.2787
ev	-10.2788
,+	-10.2795
▁Cha	-10.2795
γ	-10.2798
int	-10.2798
ប	-10.28
jja	-10.281
bei	-10.2811
non	-10.2813
▁muri	-10.2815
▁ᎠᎴ	-10.2821
▁Та	-10.2824
▁بر	-10.283
sina	-10.2831
ур	-10.2837
▁nos	-10.284
وا	-10.2848
▁fun	-10.2849
▁አ	-10.2851
▁koe	-10.2854
▁Ai	-10.2857
kola	-10.2863
▁ज	-10.2867
ата	-10.287
▁maha	-10.2878
yar	-10.2879
▁Ng	-10.2879
ion	-10.2879
dhe	-10.2883
▁سے	-10.289
¬	-10.289
▁ezi	-10.289
ň	-10.2893
▁﻿	-10.2894
▁oro	-10.2899
▁este	-10.29
ć	-10.2901
▁ntawm	-10.2905
▁Ali	-10.2906
▁Abraham	-10.2906
alal	-10.2906
kulu	-10.2907
▁aye	-10.2907
ál	-10.2915
tà	-10.292
ス	-10.2923
▁épi	-10.2931
har	-10.2935
ure	-10.2937
pak	-10.2941
▁guo	-10.2944
▁kini	-10.2948
ರ್	-10.2949
nika	-10.295
؟	-10.2952
ви	-10.2957
ray	-10.2957
▁του	-10.2957
иб	-10.2959
▁wey	-10.2963
▁ап	-10.2963
▁come	-10.2969
▁yô	-10.2971
▁ɖɔ	-10.2975
och	-10.2975
ក	-10.2985
bre	-10.2986
▁να	-10.2991
▁moo	-10.2993
To	-10.2995
ino	-10.3
eno	-10.3004
▁ला	-10.3005
ル	-10.3007
ии	-10.3012
▁kɛ̀	-10.3015
ду	-10.3017
nder	-10.3019
▁thiab	-10.3023
bala	-10.3029
alu	-10.3045
ox	-10.3049
▁ahi	-10.3051
出	-10.3053
hang	-10.3058
▁nehe	-10.3058
▁کي	-10.3065
yr	-10.3066
▁ಅ	-10.3071
ld	-10.3072
▁sub	-10.3075
▁kap	-10.3076
Se	-10.3078
की	-10.3079
dem	-10.308
гу	-10.3093
▁dos	-10.3096
▁raha	-10.3097
Di	-10.31
▁paa	-10.3101
▁ña	-10.3105
ድ	-10.3106
▁Men	-10.3106
sho	-10.3107
kara	-10.3108
¹	-10.3109
▁olo	-10.3112
▁ass	-10.3117
из	-10.3121
▁vil	-10.3127
मी	-10.3127
Ni	-10.3132
kke	-10.3134
ما	-10.3135
日	-10.3143
▁פון	-10.3145
gas	-10.3147
ham	-10.3158
▁mew	-10.3159
▁mwet	-10.3165
ທີ່	-10.3169
θ	-10.3169
Mo	-10.3169
chic	-10.3171
ની	-10.3172
ako	-10.3174
shan	-10.3184
▁ла	-10.319
▁við	-10.3192
▁weh	-10.3193
Р	-10.3199
▁ahn	-10.3203
▁آ	-10.3209
aku	-10.3209
▁mele	-10.3221
ለ	-10.3225
ین	-10.3228
▁Tama	-10.3235
▁hna	-10.3239
▁sti	-10.3239
▁hain	-10.3242
ũ	-10.3243
igi	-10.3245
twa	-10.3248
itu	-10.3248
▁mee	-10.3251
ono	-10.3255
ayi	-10.3255
▁dir	-10.326
ves	-10.3261
ට	-10.3264
ι	-10.3265
inga	-10.3269
wak	-10.3269
Mu	-10.3271
▁Die	-10.3271
biri	-10.3276
gü	-10.3282
ей	-10.3283
ນ	-10.3284
▁^	-10.329
uta	-10.3296
uni	-10.3308
mb	-10.3309
andi	-10.3315
Ti	-10.332
▁sen	-10.332
ታ	-10.3327
▁jong	-10.3327
ᑕ	-10.3327
▁not	-10.3331
ō	-10.3333
ян	-10.3335
же	-10.3339
▁kasi	-10.3341
▁tz	-10.3345
Т	-10.335
bon	-10.335
hana	-10.3356
▁אַ	-10.3365
ول	-10.3367
tun	-10.3368
▁mono	-10.3368
▁Mag	-10.3368
▁kɔ	-10.3375
ав	-10.3377
▁Zi	-10.3381
uu	-10.3387
▁yaa	-10.3391
sis	-10.34
▁ase	-10.34
mala	-10.3401
▁द	-10.3403
Ko	-10.3403
▁noho	-10.3406
▁pé	-10.341
น	-10.3412
▁আ	-10.3413
ыш	-10.3413
rs	-10.3416
sal	-10.3423
зи	-10.3424
ame	-10.3427
nem	-10.3428
▁tino	-10.3428
▁तो	-10.3428
ля	-10.3429
ум	-10.344
তে	-10.3446
▁kot	-10.3449
Le	-10.345
▁uli	-10.3458
▁tho	-10.3462
sko	-10.3466
▁net	-10.3468
▁ⴳ	-10.3468
▁quin	-10.3476
▁nama	-10.3479
▁ש	-10.3479
М	-10.348
到	-10.3483
▁post	-10.3484
jj	-10.3485
▁м	-10.3488
ры	-10.3495
▁sè	-10.3501
▁له	-10.3503
▁bot	-10.3505
▁Aku	-10.3513
шы	-10.3517
ora	-10.352
▁thn	-10.3521
ↄ	-10.3523
‚	-10.3531
▁esi	-10.3532
ef	-10.3535
dis	-10.3541
stan	-10.3541
aren	-10.3544
▁ⵙ	-10.355
vy	-10.3553
】	-10.3558
▁plan	-10.3562
▁ኣ	-10.3563
လီၤ	-10.3564
▁azo	-10.3565
सा	-10.3565
▁bwa	-10.357
រ	-10.357
▁over	-10.3571
▁Ze	-10.3573
sé	-10.3574
tem	-10.3589
▁το	-10.3589
▁tá	-10.3589
▁ñ	-10.3593
mpa	-10.3595
stra	-10.3598
▁fè	-10.3603
▁nana	-10.3604
▁Es	-10.3607
lí	-10.3607
ይ	-10.3609
ת	-10.361
▁pala	-10.3612
▁tang	-10.3614
▁ket	-10.3615
ит	-10.3619
ок	-10.3621
▁gbe	-10.3624
▁Roma	-10.3624
▁É	-10.3625
▁mua	-10.3626
▁musu	-10.3628
rü	-10.3637
▁uye	-10.3641
▁ኣብ	-10.3643
थ	-10.3648
ket	-10.3648
eta	-10.3653
▁мен	-10.3654
▁آهي	-10.3654
▁ш	-10.3656
▁kapa	-10.3657
my	-10.3659
shu	-10.366
ის	-10.3664
ᒃ	-10.3664
▁inter	-10.367
▁वि	-10.3675
иш	-10.3676
ਲ	-10.3681
▁menge	-10.3683
sim	-10.3684
yaa	-10.3687
ân	-10.3688
rim	-10.369
▁bas	-10.3691
▁што	-10.3696
▁Ọ	-10.3702
ស	-10.3706
со	-10.3708
дир	-10.3715
ව	-10.3716
най	-10.3717
▁шу	-10.3721
aja	-10.3724
▁mini	-10.3724
ή	-10.3727
▁बि	-10.3729
▁familia	-10.3729
ets	-10.373
oy	-10.3733
ܐ	-10.3733
ě	-10.3738
мен	-10.3739
^	-10.3742
bere	-10.3751
चा	-10.3753
oma	-10.3754
vat	-10.376
と	-10.3764
▁mer	-10.3772
▁bwe	-10.3777
▁pang	-10.3778
ос	-10.3787
▁kpo	-10.3787
oli	-10.3788
▁doko	-10.379
▁tsi	-10.3792
▁tala	-10.3795
▁सु	-10.3797
iyaa	-10.3801
▁Maria	-10.3801
ፍ	-10.3811
rwa	-10.3811
ẽ	-10.3814
jai	-10.3816
kil	-10.3818
mek	-10.3819
ел	-10.3827
lie	-10.3828
mɔ	-10.3829
▁sana	-10.383
ја	-10.3833
▁ना	-10.3837
гы	-10.3841
ተ	-10.3842
pita	-10.3843
▁दु	-10.3846
▁अछि	-10.3846
▁ipan	-10.3847
φ	-10.3847
>	-10.3849
nza	-10.3849
▁parti	-10.385
ά	-10.3853
▁pali	-10.3856
▁ib	-10.3857
▁ihe	-10.386
▁bet	-10.3864
ຂອງ	-10.3867
▁эм	-10.3868
▁як	-10.3874
▁moun	-10.3875
zhi	-10.3878
▁mis	-10.3879
▁wani	-10.3879
ысь	-10.388
▁chic	-10.3881
▁film	-10.3883
▁pwe	-10.3889
▁soni	-10.3891
ै	-10.3891
qo	-10.3895
pun	-10.3896
▁və	-10.3898
▁mwen	-10.3899
mma	-10.3903
bia	-10.3905
ම	-10.3905
▁تر	-10.3918
тай	-10.392
▁video	-10.3924
لا	-10.3925
和	-10.3926
اں	-10.3926
ය	-10.3933
▁lek	-10.3935
É	-10.3937
▁dè	-10.3943
▁kaw	-10.3947
wang	-10.3947
▁Mawu	-10.3948
▁ŋu	-10.3948
⁠	-10.3949
bit	-10.395
‵	-10.3951
ያ	-10.3951
▁vun	-10.3952
či	-10.3953
ret	-10.3953
ийн	-10.3954
dok	-10.3956
▁oti	-10.3959
▁khat	-10.3963
keun	-10.3963
مان	-10.3967
▁eg	-10.3972
▁pole	-10.3973
spa	-10.3981
▁За	-10.3983
tou	-10.3984
ҳои	-10.3984
ꞌa	-10.3987
tua	-10.3989
▁nanga	-10.399
▁siya	-10.399
▁bat	-10.3991
▁olu	-10.3994
ớp	-10.3995
tet	-10.3999
یا	-10.4
gg	-10.4007
chen	-10.4008
idh	-10.4015
▁kale	-10.4016
П	-10.402
ਨ	-10.4024
tele	-10.4025
ຍ	-10.4034
ghe	-10.4041
▁لا	-10.4044
▁یا	-10.4048
▁January	-10.4051
▁yet	-10.4051
tie	-10.4058
▁kaka	-10.4064
▁das	-10.4065
▁cy	-10.4065
ᓂ	-10.4077
ʌ	-10.4085
ans	-10.4088
▁baba	-10.4089
Œ	-10.409
¼	-10.409
tter	-10.4092
тын	-10.4095
elo	-10.4106
生	-10.4108
▁yeke	-10.4109
sik	-10.4113
བ	-10.4117
mis	-10.4118
">	-10.4119
▁दे	-10.4122
ित	-10.4126
Д	-10.4129
uka	-10.4131
▁gra	-10.4136
ык	-10.4137
ик	-10.4138
▁অ	-10.4147
apa	-10.4149
▁là	-10.4149
tah	-10.415
▁tsy	-10.4153
ros	-10.4155
▁uu	-10.4155
ส	-10.4159
▁inn	-10.4166
ˍ	-10.4167
қ	-10.4167
▁ulu	-10.4169
leg	-10.4174
nnu	-10.4174
ಯ	-10.4175
▁bai	-10.4181
い	-10.4189
▁sareng	-10.4191
eke	-10.4192
sor	-10.4193
ការ	-10.4198
▁far	-10.4199
▁کر	-10.42
ར་	-10.4205
▁ema	-10.4207
▁tik	-10.4208
▁för	-10.421
ט	-10.421
abo	-10.4215
▁For	-10.4216
▁ऊ	-10.4218
▁ré	-10.422
vet	-10.4221
lag	-10.4226
Li	-10.4226
һ	-10.4227
▁fir	-10.4229
▁bei	-10.423
▁tout	-10.4231
rí	-10.4231
▁enda	-10.4233
kit	-10.4243
▁иш	-10.4244
tá	-10.4245
ۋ	-10.425
በ	-10.4253
Г	-10.4255
ம்	-10.4258
দ	-10.4262
▁bata	-10.4266
amo	-10.4267
▁ayi	-10.4268
ʋ	-10.4271
gel	-10.4277
▁mbe	-10.4278
▁Her	-10.428
kama	-10.4282
му	-10.4284
دى	-10.4284
kur	-10.4285
ᓕ	-10.4289
red	-10.4291
▁ɖò	-10.4295
uje	-10.4297
tana	-10.4298
ime	-10.43
▁бол	-10.4307
сан	-10.4316
ের	-10.432
▁Ce	-10.4321
▁cum	-10.4324
地	-10.4334
▁tauna	-10.4337
▁nè	-10.4338
▁mani	-10.4339
▁Ол	-10.4342
ları	-10.4344
ppa	-10.4349
▁Shi	-10.4349
þ	-10.4352
गु	-10.4356
▁мо	-10.4357
▁ке	-10.436
kunata	-10.4361
▁car	-10.4362
▁pawl	-10.4368
দা	-10.4369
▁nk	-10.4369
▁leng	-10.4372
hia	-10.4377
जी	-10.4383
ngin	-10.4388
▁دي	-10.4389
ыт	-10.439
▁kur	-10.4391
▁tot	-10.4393
abi	-10.4401
▁bit	-10.4401
tau	-10.4406
ın	-10.4409
bri	-10.441
kor	-10.4411
нд	-10.4413
▁ram	-10.4416
ੇ	-10.442
тер	-10.442
▁lua	-10.4421
▁نه	-10.4422
▁diri	-10.4422
▁vir	-10.4422
▁pay	-10.4427
▁yal	-10.4428
iq	-10.443
це	-10.4431
▁hau	-10.4437
▁king	-10.4438
bh	-10.4443
▁हम	-10.4446
▁jam	-10.445
▁نا	-10.4462
▁tua	-10.4466
chan	-10.4466
•˜	-10.4466
▁би	-10.4469
ū	-10.4469
▁wal	-10.4473
kk	-10.4477
uin	-10.4484
▁Quechua	-10.4485
сем	-10.4487
ais	-10.4489
▁lagi	-10.4491
▁má	-10.4492
▁karo	-10.4492
▁އެ	-10.4493
▁lok	-10.4495
aru	-10.4496
▁کہ	-10.4498
ema	-10.4499
Ya	-10.4501
▁Para	-10.4503
gra	-10.4506
▁ಆ	-10.4508
mah	-10.4513
mati	-10.4522
▁taka	-10.4525
ɛn	-10.4529
མ་	-10.4531
ሉ	-10.4533
▁hon	-10.4534
ран	-10.4536
▁کار	-10.4537
uru	-10.4537
گ	-10.4546
lela	-10.4549
▁Fu	-10.4551
▁Tha	-10.4552
▁pahn	-10.4553
set	-10.4554
▁kukwe	-10.4555
fin	-10.4557
▁й	-10.4563
ŋa	-10.4567
▁भ	-10.4572
ಕ	-10.4572
▁кор	-10.4581
aan	-10.4583
▁Aba	-10.4584
if	-10.4584
▁pred	-10.4586
▁چ	-10.4588
▁ग	-10.459
hai	-10.4594
О	-10.4595
▁fé	-10.4596
▁bɨ	-10.4596
ល	-10.4601
ಂ	-10.4603
▁uri	-10.4603
ень	-10.4604
▁और	-10.4606
▁ти	-10.4612
▁dó	-10.4623
行	-10.4629
›	-10.463
▁akɛ	-10.4631
▁kitchen	-10.4633
▁alle	-10.4635
cua	-10.4646
▁yin̈	-10.4646
mā	-10.4648
▁ди	-10.4653
kä	-10.4654
ဒီး	-10.4655
▁kak	-10.4655
iñ	-10.466
tim	-10.467
▁Ndi	-10.4672
▁ق	-10.4677
ede	-10.4677
rek	-10.468
▁wahn	-10.4681
י	-10.4682
▁anti	-10.4682
▁fɛ	-10.4692
▁ਨੂੰ	-10.4694
ё	-10.4695
nai	-10.4695
લ	-10.4702
ige	-10.4703
غ	-10.4704
cio	-10.4705
를	-10.4707
rah	-10.4709
wer	-10.4711
স	-10.4713
zar	-10.4713
▁ल	-10.4719
▁Ber	-10.4721
▁पा	-10.4729
▁deng	-10.473
mang	-10.4732
tina	-10.4733
хь	-10.4735
yat	-10.4738
▁ни	-10.474
▁It	-10.4743
▁mari	-10.4743
▁inte	-10.4746
нар	-10.4753
җ	-10.4754
န	-10.4756
dal	-10.476
kɔ	-10.4762
mel	-10.4764
▁rok	-10.4766
▁isa	-10.4768
In	-10.4768
xin	-10.4769
ule	-10.4773
▁kya	-10.4779
▁tro	-10.478
rra	-10.4784
ова	-10.4786
▁ndu	-10.4793
riya	-10.4794
▁bya	-10.4796
▁chin	-10.4801
▁он	-10.4803
▁ⵜ	-10.4804
дә	-10.4806
аг	-10.481
▁vel	-10.4811
▁આ	-10.4812
ngga	-10.4817
▁Е	-10.4819
ń	-10.4823
▁uk	-10.4824
aro	-10.4825
▁omu	-10.4827
for	-10.4829
py	-10.4832
▁gong	-10.4837
Ke	-10.4838
▁אין	-10.4839
ख	-10.484
▁langa	-10.484
ం	-10.4841
rã	-10.4843
mene	-10.4847
car	-10.4849
▁pes	-10.4849
▁doo	-10.4856
ות	-10.4861
tɔ	-10.4865
rie	-10.4866
▁По	-10.4866
ती	-10.4867
▁gba	-10.487
▁nui	-10.4872
▁Ба	-10.4874
khe	-10.4876
▁neq	-10.4877
tä	-10.4884
▁más	-10.4885
▁loo	-10.4889
▁Ia	-10.4889
▁chuan	-10.4892
▁Am	-10.4894
inn	-10.4895
▁ش	-10.4896
ح	-10.4897
▁ez	-10.4898
til	-10.4904
Wa	-10.4907
tto	-10.4908
▁komo	-10.4909
บ	-10.4913
▁main	-10.4915
▁Jan	-10.4916
ों	-10.4916
ऽ	-10.492
▁daw	-10.4921
▁गो	-10.4924
Da	-10.4927
▁hala	-10.493
cher	-10.4931
ሳ	-10.4935
▁wun	-10.4937
rk	-10.4937
▁sas	-10.4939
▁esis	-10.4944
Б	-10.4944
ish	-10.4944
▁Yi	-10.4945
yɛ	-10.4948
▁ແລະ	-10.4949
ႈ	-10.4949
▁सं	-10.4953
lap	-10.496
De	-10.4961
▁neu	-10.4964
▁gha	-10.4965
kku	-10.4969
dé	-10.4969
▁ich	-10.4972
▁kuri	-10.4975
▁alla	-10.4977
▁ले	-10.4979
če	-10.498
аб	-10.498
▁kor	-10.4982
▁fil	-10.4984
ಕ್	-10.4984
▁dre	-10.4984
ක්	-10.4988
Н	-10.499
para	-10.4992
▁kali	-10.4992
▁пу	-10.4992
▁bra	-10.4994
▁Ida	-10.4996
онь	-10.4996
dak	-10.4998
ং	-10.5
▁tú	-10.5002
▁ይ	-10.5004
▁ਦੀ	-10.5004
▁maga	-10.5007
▁Sang	-10.501
ˬ-	-10.5012
▁corner	-10.5013
▁ibi	-10.5014
rà	-10.5018
▁ها	-10.5022
Ð	-10.5026
Re	-10.5028
ica	-10.5028
ity	-10.503
▁Musa	-10.5031
ude	-10.5034
ੀ	-10.5036
▁של	-10.5036
▁kwagh	-10.5045
で	-10.5046
▁جا	-10.5047
▁mut	-10.5049
ነ	-10.5051
▁Sha	-10.5057
dur	-10.506
▁bena	-10.5069
ļ	-10.5075
▁seng	-10.5075
▁گ	-10.5085
iro	-10.5088
▁amb	-10.509
য়	-10.509
η	-10.5093
kol	-10.5094
во	-10.5095
▁parte	-10.5096
▁bantu	-10.5096
mus	-10.5097
.​—	-10.5103
शा	-10.5105
ಸ್	-10.5107
mme	-10.5109
ų	-10.5115
▁owo	-10.5115
▁lako	-10.5118
▁mac	-10.5119
kki	-10.5121
tura	-10.5122
▁At	-10.5123
▁kere	-10.5124
ᖅ	-10.5125
ят	-10.5126
▁ran	-10.5128
▁ха	-10.5128
zy	-10.5128
gha	-10.513
dom	-10.513
ente	-10.5135
ип	-10.5136
▁lati	-10.5138
▁bol	-10.5139
nos	-10.5139
Ki	-10.5147
▁raz	-10.5152
zwa	-10.5153
дыр	-10.5155
▁amma	-10.5155
ጥ	-10.5157
ン	-10.5161
oh	-10.5162
saun	-10.5189
jã	-10.5189
pro	-10.5191
ጋ	-10.5195
▁boro	-10.52
ail	-10.5206
hn	-10.5207
▁kena	-10.5208
▁sɔ	-10.5211
▁Home	-10.5212
ник	-10.5216
ў	-10.5217
▁nian	-10.522
▁Ɛ	-10.5221
न्	-10.5225
tara	-10.5229
分	-10.5232
▁Ч	-10.5232
eme	-10.5233
ney	-10.5233
dhu	-10.5233
▁sila	-10.5235
¤	-10.5235
▁nuna	-10.524
luk	-10.524
ဘၣ်	-10.5241
ega	-10.5241
▁gud	-10.5242
▁ik	-10.5243
ँ	-10.5245
nzi	-10.5246
▁dɔ	-10.5248
кан	-10.5249
ɩ	-10.525
▁eri	-10.5254
▁wɛ	-10.5257
▁mada	-10.5258
▁Ш	-10.5259
hle	-10.5259
▁hte	-10.5263
ራ	-10.5263
▁wy	-10.5266
▁tuku	-10.5272
▁mung	-10.5272
tika	-10.5278
▁abo	-10.5279
▁ebnaj	-10.5282
▁zwi	-10.5282
hna	-10.5286
▁ту	-10.5289
▁ए	-10.5289
day	-10.5289
?"	-10.5294
▁kui	-10.5295
▁twa	-10.5298
▁ér	-10.5298
ό	-10.5301
bor	-10.5309
▁Pol	-10.531
္	-10.531
ᒥ	-10.5313
Ꭲ	-10.5315
▁yab	-10.5317
iva	-10.5317
▁###	-10.5318
▁هم	-10.532
▁tao	-10.5321
še	-10.5323
▁Chinese	-10.5331
gang	-10.5332
ક	-10.5333
▁bila	-10.534
▁ann	-10.5344
▁moko	-10.5344
▁rak	-10.5346
▁ngaahi	-10.5349
iyo	-10.5351
▁lal	-10.5352
▁Um	-10.5354
고	-10.5356
▁ዝ	-10.5357
▁mia	-10.5357
▁bilang	-10.536
▁وال	-10.5362
еш	-10.5362
phi	-10.5364
tamo	-10.5365
´	-10.5366
▁Car	-10.5366
зе	-10.5373
▁eka	-10.5375
▁ìž	-10.5375
▁सा	-10.5381
ӧ	-10.5381
ине	-10.5381
▁india	-10.5385
▁تے	-10.5385
▁वा	-10.5387
▁ƒe	-10.5387
▁sel	-10.5391
▁zong	-10.5392
▁tele	-10.5399
ને	-10.54
hun	-10.54
Х	-10.5403
我	-10.5405
sana	-10.5409
cin	-10.5411
rar	-10.5413
▁PM	-10.5419
▁mail	-10.542
ක	-10.5421
.»	-10.5426
алда	-10.5428
▁zhe	-10.5429
ሰ	-10.543
▁איז	-10.5434
子	-10.5435
yé	-10.5435
▁чи	-10.5435
ec	-10.5436
ပါ	-10.5437
med	-10.5446
sat	-10.5447
tuk	-10.5447
ón	-10.5451
▁qe	-10.5452
▁sma	-10.5455
iso	-10.5456
its	-10.5456
raj	-10.5457
▁Ɔ	-10.546
gba	-10.5463
▁nä	-10.5466
▁дӓ	-10.5469
▁sëmbë	-10.5473
▁gam	-10.5476
ɛɛ	-10.5478
Mat	-10.5479
ś	-10.548
nk	-10.5484
▁khu	-10.5484
▁gel	-10.5488
▁Н	-10.5495
ին	-10.5498
pri	-10.55
▁win	-10.55
▁ئا	-10.5501
mpe	-10.5502
▁pil	-10.5504
pia	-10.5504
etik	-10.5507
▁һәм	-10.5509
ל	-10.5509
▁pasa	-10.551
yl	-10.551
mpo	-10.5512
bali	-10.5515
tung	-10.5518
uch	-10.5518
ዕ	-10.5518
▁Ad	-10.5522
▁ас	-10.5527
nang	-10.5529
▁tene	-10.5534
siya	-10.5542
hte	-10.5549
ew	-10.5549
པ་	-10.5555
mara	-10.5559
▁tata	-10.5561
እ	-10.5566
▁ик	-10.5566
▁ماشین	-10.5574
ດ	-10.5575
ини	-10.5577
ụ	-10.5577
iza	-10.5581
▁بۆ	-10.5584
▁awa	-10.5585
ও	-10.559
way	-10.5591
▁район	-10.5597
▁won	-10.5597
▁izi	-10.5604
▁Ab	-10.5605
ral	-10.5611
▁سو	-10.5611
kere	-10.5612
▁oru	-10.5613
Ã	-10.5615
▁bare	-10.5622
▁xchi	-10.5623
oro	-10.5635
▁tr	-10.5638
▁ike	-10.5638
ր	-10.5643
▁тур	-10.5644
cuna	-10.5644
▁हा	-10.5646
ที่	-10.5647
▁aune	-10.5649
▁ܒ	-10.5654
pre	-10.5655
hui	-10.5658
Ꭹ	-10.5658
paj	-10.5661
▁Por	-10.5661
sala	-10.5662
het	-10.5666
lio	-10.5666
▁like	-10.5667
▁his	-10.5669
nog	-10.5669
▁Pero	-10.567
▁mä	-10.5674
ల	-10.5675
▁bez	-10.5676
гъан	-10.5678
star	-10.5681
may	-10.5681
න්	-10.5684
▁ብ	-10.5684
▁oc	-10.5687
نی	-10.5688
rus	-10.569
▁moto	-10.5692
▁Dr	-10.5696
은	-10.5698
▁Xi	-10.5701
kim	-10.5702
tari	-10.5707
▁nai	-10.571
▁nka	-10.572
nama	-10.5722
▁ky	-10.5723
▁satu	-10.5723
ס	-10.5729
пи	-10.573
wali	-10.5731
Be	-10.5734
lou	-10.5735
nanga	-10.5737
▁Kristo	-10.5738
ม	-10.5739
▁diat	-10.574
▁bil	-10.574
▁kota	-10.574
▁ń	-10.5741
No	-10.5741
▁ख	-10.5745
ìš	-10.5748
wala	-10.5749
kia	-10.5753
reng	-10.5755
tali	-10.576
▁seo	-10.5763
ht	-10.5764
▁pla	-10.5769
ել	-10.5773
lab	-10.5779
лен	-10.5779
▁mbu	-10.578
art	-10.5782
tata	-10.5782
▁kede	-10.5782
▁Ц	-10.5783
У	-10.5783
န့ၣ်	-10.5785
▁pero	-10.5785
rem	-10.5786
pata	-10.5787
ыны	-10.579
▁बे	-10.5793
▁ô	-10.5793
rika	-10.5794
dah	-10.5796
▁Jerusalem	-10.5796
▁तर	-10.5798
umu	-10.58
lana	-10.5803
▁len	-10.5804
▁enggau	-10.5808
▁ተ	-10.5808
▁mais	-10.5808
én	-10.5808
▁jini	-10.581
도	-10.5811
প	-10.5811
▁anna	-10.5813
▁мар	-10.5818
▁pak	-10.5819
▁ò	-10.5823
пе	-10.5823
kul	-10.5825
▁lwa	-10.5827
ный	-10.5833
▁cũai	-10.5835
put	-10.5835
phe	-10.5837
get	-10.5838
sem	-10.5838
лаш	-10.5838
ತ	-10.584
uc	-10.5846
▁saka	-10.5847
yê	-10.5848
nay	-10.5854
▁mes	-10.5854
▁tom	-10.5855
oko	-10.5856
▁هو	-10.5856
nami	-10.5856
jam	-10.5857
▁ᎾᏍᎩ	-10.5857
▁save	-10.5857
▁mati	-10.5861
▁ओ	-10.5861
▁dagiti	-10.5862
тыр	-10.5865
dai	-10.587
成	-10.5873
▁ago	-10.5878
ⵉⵏ	-10.588
▁এ	-10.588
▁dau	-10.588
sil	-10.5884
И	-10.5887
▁malu	-10.5888
▁Pen	-10.5893
▁rin	-10.5894
kela	-10.5894
ый	-10.5894
sur	-10.5902
▁koji	-10.5906
▁ape	-10.5909
▁up	-10.591
▁го	-10.5911
ạ	-10.5915
▁akka	-10.5923
рин	-10.5924
▁enye	-10.5924
▁fel	-10.5934
adh	-10.5939
▁eye	-10.5939
kira	-10.5943
▁poy	-10.5944
▁và	-10.5946
ota	-10.5949
ibi	-10.5949
▁pale	-10.5955
▁eno	-10.5956
jim	-10.5959
ન	-10.596
▁km	-10.5962
ས་	-10.5965
ний	-10.5966
ܢ	-10.5968
▁под	-10.5973
ләр	-10.5975
▁раз	-10.5975
ся	-10.598
▁toj	-10.5981
▁ste	-10.5981
▁Min	-10.5981
▁dui	-10.5984
▁mina	-10.5987
rɛ	-10.5989
ulo	-10.5991
Latn	-10.5992
ງ	-10.5994
yuk	-10.5999
fen	-10.6
рд	-10.6002
mber	-10.6002
▁Bab	-10.6016
▁അ	-10.6016
ಲ	-10.6016
▁April	-10.6019
̲	-10.602
▁الأ	-10.6022
hk	-10.6023
▁pyn	-10.6026
ps	-10.6038
▁meh	-10.6039
ез	-10.6044
ନ	-10.6048
▁Ú	-10.6049
ौ	-10.6052
use	-10.6055
▁leti	-10.6064
ци	-10.6064
▁gar	-10.6065
ዳ	-10.6066
ङ	-10.6067
▁sau	-10.6072
vé	-10.6072
ep	-10.6073
▁juq	-10.6074
gna	-10.6087
ವ	-10.6088
▁use	-10.6088
rap	-10.6095
▁Got	-10.6098
▁så	-10.61
ս	-10.6106
▁Wan	-10.6106
▁ibu	-10.6106
jon	-10.6108
por	-10.6115
υ	-10.6116
▁keu	-10.6116
▁ܕ	-10.6119
хи	-10.6122
▁ते	-10.6122
wat	-10.6125
لو	-10.6127
raka	-10.6127
анд	-10.613
tong	-10.6131
mé	-10.6133
▁achi	-10.6138
▁щ	-10.6144
zin	-10.6144
ਾ	-10.6145
▁Э	-10.6145
▁tí	-10.6147
▁ပ	-10.6149
▁З	-10.615
▁א	-10.6154
▁yam	-10.6154
▁ñu	-10.6155
ҳо	-10.6155
tani	-10.6157
▁dans	-10.6162
▁bari	-10.6168
▁Mon	-10.6173
▁ị	-10.6175
▁bakal	-10.6175
▁gran	-10.6181
une	-10.6182
▁ong	-10.6182
▁sc	-10.6185
ech	-10.6186
ግ	-10.6187
lele	-10.6189
ksi	-10.6189
jem	-10.6189
▁mpi	-10.619
▁tuh	-10.6191
bur	-10.6191
▁tong	-10.6198
വ	-10.62
▁Ben	-10.62
line	-10.6202
▁ava	-10.6204
▁вы	-10.6206
▁yandi	-10.6206
dina	-10.6208
▁Yezu	-10.6209
▁pii	-10.6215
ၵ	-10.6218
▁chì	-10.6221
▁ул	-10.6222
लो	-10.6224
▁Tra	-10.6227
▁ej	-10.6229
khu	-10.623
▁Я	-10.623
ап	-10.6239
▁nt	-10.6241
စ	-10.6241
ses	-10.6242
ए	-10.6242
ง	-10.6243
▁är	-10.6244
сть	-10.6245
▁has	-10.6248
▁ey	-10.6248
▁aap	-10.6251
▁kuna	-10.6251
▁via	-10.6258
지	-10.626
▁vin	-10.6261
▁faa	-10.6263
한	-10.6264
rca	-10.6269
▁ис	-10.6272
ск	-10.6274
▁Det	-10.6278
ار	-10.6283
▁andre	-10.6285
pot	-10.6286
Ꮅ	-10.6291
mela	-10.6292
enda	-10.6293
লে	-10.6294
king	-10.6296
®	-10.6297
gre	-10.63
дер	-10.63
В	-10.63
«	-10.6301
▁hou	-10.6302
lit	-10.6304
lom	-10.6307
▁baru	-10.6311
mina	-10.6317
uti	-10.6317
Bo	-10.6317
tsu	-10.6318
kot	-10.6322
tama	-10.6322
▁Со	-10.6322
▁Zo	-10.6323
▁Paulo	-10.6324
▁Не	-10.6325
യ	-10.6327
▁hat	-10.633
rio	-10.6331
▁ю	-10.6332
▁kudi	-10.6333
▁nyu	-10.6333
یت	-10.6333
▁idi	-10.6334
▁mere	-10.634
▁mor	-10.6341
▁ⴰⴷ	-10.6341
▁ev	-10.6341
nju	-10.6344
hl	-10.6346
▁dabe	-10.6351
▁تي	-10.6353
wai	-10.6353
hala	-10.6356
▁με	-10.6358
ted	-10.6361
në	-10.6361
аз	-10.6361
家	-10.6364
▁Gad	-10.6365
▁dät	-10.6367
ກ	-10.6368
lari	-10.6369
▁matu	-10.6369
نىڭ	-10.6369
τ	-10.6372
▁bie	-10.6373
qe	-10.6376
zia	-10.6377
▁дә	-10.6381
▁kung	-10.6384
▁cara	-10.6386
gat	-10.639
▁yul	-10.6392
тэ	-10.6395
pet	-10.6396
zione	-10.6397
▁punika	-10.6397
▁sida	-10.6397
多	-10.6398
ę	-10.6402
କୁ	-10.6403
oti	-10.6404
yal	-10.6404
▁ر	-10.6406
▁Au	-10.6407
లు	-10.6408
ು	-10.6412
Tu	-10.6415
ges	-10.6419
rad	-10.642
▁את	-10.6422
ол	-10.6425
tzen	-10.6425
ᖓ	-10.6426
▁bere	-10.6426
▁ndị	-10.6433
ये	-10.6434
ÿ	-10.6434
dun	-10.644
▁tum	-10.644
▁txi	-10.6446
lala	-10.6446
▁naga	-10.6447
▁ao	-10.6451
▁kɑ	-10.6454
▁buat	-10.6455
qi	-10.6458
▁tano	-10.6459
йы	-10.6461
▁hita	-10.6462
पा	-10.6463
▁Ngu	-10.6468
ade	-10.6477
▁latou	-10.6478
ça	-10.6481
▁haw	-10.6484
▁gata	-10.6486
▁hé	-10.6486
ị	-10.6488
mini	-10.649
▁ከ	-10.6493
лай	-10.6495
天	-10.6496
rea	-10.6496
sit	-10.6499
▁ਅਤੇ	-10.6499
ларын	-10.65
pp	-10.6503
उ	-10.6504
ши	-10.6507
bili	-10.6507
▁kae	-10.6507
▁Pre	-10.651
?’	-10.6511
▁COVID	-10.6516
bus	-10.6517
▁ай	-10.6518
saka	-10.6519
▁Cor	-10.6519
න	-10.6523
▁News	-10.6523
rê	-10.6524
▁plus	-10.6525
▁jie	-10.6528
ರಿ	-10.6531
▁uru	-10.6533
sing	-10.6533
ase	-10.6533
▁Ꭴ	-10.6536
ש	-10.6538
pho	-10.6538
ു	-10.6539
ही	-10.654
dim	-10.6541
ळ	-10.6542
▁karnataka	-10.6543
▁bal	-10.6544
rani	-10.6544
ller	-10.6545
▁kuru	-10.6547
ido	-10.6547
tom	-10.6551
نگ	-10.6553
▁ম	-10.6556
▁amɛ	-10.6557
▁ми	-10.6558
▁kuwa	-10.6559
▁že	-10.6559
pus	-10.6565
gad	-10.6565
▁koj	-10.6567
▁voor	-10.6571
нан	-10.6572
ñu	-10.6576
yum	-10.6577
▁ach	-10.6579
ট	-10.658
ِ	-10.6582
▁gh	-10.6585
▁juga	-10.6586
دار	-10.6589
▁NA	-10.6592
▁kit	-10.6593
hy	-10.6593
sqa	-10.6593
iy	-10.6594
‹ˆ	-10.6595
श	-10.6597
▁أن	-10.6599
sini	-10.6601
▁دو	-10.6607
ds	-10.661
▁iko	-10.6612
ア	-10.6612
▁kaya	-10.6613
▁မ	-10.6614
▁nahilalaki	-10.6615
via	-10.6615
nata	-10.6616
បាន	-10.662
▁fare	-10.6621
▁Pan	-10.6622
зэ	-10.6622
▁sí	-10.6626
gga	-10.6628
μ	-10.6628
ன்	-10.6629
agi	-10.6636
▁ole	-10.6638
ई	-10.6639
▁nuk	-10.6645
▁napa	-10.6646
▁Mana	-10.6646
So	-10.6648
▁meg	-10.6648
дз	-10.665
▁της	-10.6654
▁Á	-10.6655
saa	-10.6657
gbe	-10.6657
▁mus	-10.6658
▁lon	-10.6661
نى	-10.6663
▁epi	-10.6665
дэ	-10.6665
▁ву	-10.6668
huan	-10.6673
сен	-10.6674
ܕ	-10.6675
▁eke	-10.6675
تر	-10.6677
▁señas	-10.6679
ဝ	-10.6684
dro	-10.6684
▁ix	-10.6686
▁kisi	-10.6692
▁bien	-10.6693
нэ	-10.6696
ған	-10.6699
な	-10.6706
▁aja	-10.6711
tut	-10.6712
sai	-10.6713
ސް	-10.6721
lel	-10.6724
iba	-10.6724
▁кел	-10.6725
▁tawh	-10.6726
jak	-10.6727
lisi	-10.6728
▁مع	-10.6733
▁kuli	-10.6734
ute	-10.6736
▁gal	-10.674
▁भी	-10.6741
▁did	-10.6741
ན་	-10.6742
Ä	-10.6744
dze	-10.6748
▁jia	-10.6749
로	-10.6749
▁jian	-10.6752
▁ito	-10.6753
▁تولید	-10.6755
ᖃ	-10.6759
▁mig	-10.6767
▁ح	-10.6768
▁mii	-10.6768
▁سال	-10.677
མ	-10.6773
▁umi	-10.6773
yam	-10.6774
▁door	-10.6781
▁ὁ	-10.6781
▁ĩ	-10.6785
មាន	-10.6789
▁къа	-10.6796
ሪ	-10.68
ጠ	-10.68
yak	-10.68
Ꮓ	-10.6801
ante	-10.6802
ži	-10.6803
bla	-10.6804
zon	-10.6805
dio	-10.6805
▁agali	-10.6806
Ꮧ	-10.6808
▁wong	-10.6815
▁шо	-10.6815
▁سا	-10.6816
▁ор	-10.6817
▁Mai	-10.6818
sie	-10.6819
▁ngak	-10.6819
▁forma	-10.682
▁lasi	-10.6821
▁ome	-10.6822
shin	-10.6823
▁pon	-10.6827
▁ṣe	-10.6829
vai	-10.683
▁हलइ	-10.6833
‹¤.	-10.6833
▁care	-10.6838
▁ја	-10.6838
▁pare	-10.6842
ម	-10.6843
న	-10.6843
èr	-10.6843
▁një	-10.6844
σ	-10.6845
ਾਂ	-10.6846
▁entre	-10.6848
▁nǔ	-10.6849
ዋ	-10.6849
су	-10.6856
хан	-10.6857
▁War	-10.6858
▁iPhone	-10.6861
▁â	-10.6862
▁ን	-10.6866
гъ	-10.6867
wɔ	-10.6868
፣	-10.6871
下	-10.6874
zion	-10.6882
xan	-10.6883
▁seg	-10.6885
िक	-10.6893
기	-10.6894
▁அ	-10.6894
kali	-10.6895
hari	-10.6896
▁fal	-10.6897
ث	-10.69
bul	-10.6901
▁hy	-10.6904
ໃນ	-10.6904
°€	-10.6908
▁Har	-10.6912
сын	-10.6913
▁kahi	-10.6915
▁था	-10.6916
▁ды	-10.6916
kani	-10.6921
▁uska	-10.6923
mwa	-10.6924
▁ate	-10.6929
▁cre	-10.6929
ве	-10.6929
▁dhu	-10.6929
یان	-10.693
vor	-10.6933
▁poli	-10.6936
▁vaan	-10.6936
▁ry	-10.6937
unu	-10.6939
guna	-10.6941
ms	-10.6942
▁ïa	-10.6942
ਕ	-10.6944
▁Moses	-10.6946
▁amba	-10.6946
вал	-10.6946
▁rech	-10.6949
хо	-10.6956
▁dann	-10.6957
वि	-10.6959
ជា	-10.6961
wie	-10.6961
ία	-10.6962
▁tɛ	-10.6962
ค	-10.6966
ащ	-10.6969
▁ist	-10.6975
▁tet	-10.6977
▁―	-10.6978
 ।	-10.6981
xü̃	-10.6983
▁ede	-10.6987
agh	-10.6987
▁tidak	-10.6987
▁آن	-10.699
▁law	-10.6993
jun	-10.6994
▁ké	-10.6998
▁John	-10.7
sei	-10.7002
▁angka	-10.7004
▁xk	-10.7004
dala	-10.7005
다	-10.7006
ર	-10.7011
▁bani	-10.7011
Ra	-10.7013
▁bor	-10.7014
oe	-10.7015
▁dira	-10.7015
▁liye	-10.7019
ካ	-10.702
n̄	-10.7027
▁Ꭰ	-10.703
▁woo	-10.703
▁AM	-10.7031
▁deg	-10.7031
▁neng	-10.7032
ño	-10.7033
会	-10.7035
iv	-10.7037
ω	-10.7042
▁sh	-10.7042
▁‑	-10.7042
▁base	-10.7043
ם	-10.7044
▁ñan	-10.7045
ھ	-10.7046
▁lá	-10.7048
▁بی	-10.7052
▁Paul	-10.7053
wé	-10.7055
jer	-10.7056
▁ker	-10.7057
▁swa	-10.7058
kaka	-10.7058
▁oa	-10.7058
teri	-10.706
▁pos	-10.7062
▁tipa	-10.7071
▁biti	-10.7074
ಸ	-10.7076
▁kong	-10.7079
▁dị	-10.7082
▁èn	-10.7083
▁kore	-10.7083
ppi	-10.7092
tā	-10.7093
▁یک	-10.7094
ᓐ	-10.7095
сто	-10.7096
▁noh	-10.7096
▁jix	-10.7097
▁hei	-10.7101
ല	-10.7103
▁contra	-10.7106
ast	-10.7106
****	-10.7107
ባ	-10.7111
▁bey	-10.7112
▁polo	-10.7112
ቲ	-10.7114
▁для	-10.7116
ሕ	-10.7118
▁~~~	-10.712
▁ಇ	-10.7121
▁tuk	-10.7121
▁ele	-10.7122
▁हइ	-10.7123
)="	-10.7125
nger	-10.7127
▁ɨ́	-10.7129
pang	-10.7134
▁τοῦ	-10.7135
▁Chay	-10.7137
tanga	-10.7141
ද	-10.7141
▁Ay	-10.7141
து	-10.7143
নি	-10.7145
khi	-10.7149
▁bali	-10.7149
сэ	-10.7151
▁alli	-10.7153
стан	-10.7156
rom	-10.7159
▁Or	-10.716
ذ	-10.7162
▁aria	-10.7164
▁Ny	-10.7165
▁ಮ	-10.7166
▁lama	-10.7169
▁My	-10.7171
▁Iesu	-10.7172
▁foar	-10.7173
лі	-10.7173
ന	-10.7173
cunata	-10.7174
र्	-10.7181
tit	-10.7181
▁kona	-10.7181
▁hoe	-10.7182
kau	-10.7182
гүй	-10.7183
ે	-10.7184
▁об	-10.7185
▁suma	-10.7185
▁okwa	-10.7186
Ñ	-10.7189
▁jẹ	-10.7192
ув	-10.7192
ید	-10.7192
nā	-10.7195
▁species	-10.7195
▁Juda	-10.7199
▁She	-10.72
ard	-10.7201
▁ē	-10.7203
tolo	-10.7204
꞉,	-10.7205
▁xwe	-10.7206
▁Ф	-10.7206
teng	-10.7206
tere	-10.7207
การ	-10.7208
kula	-10.7209
▁yaw	-10.7209
ара	-10.7213
ҥ	-10.7216
▁sna	-10.7218
Ꮎ	-10.7218
vas	-10.7218
▁sho	-10.7219
жи	-10.7219
дын	-10.7222
ບ	-10.7222
▁Mas	-10.7224
ида	-10.7224
mele	-10.7226
▁Samuel	-10.7226
▁эди	-10.7226
ని	-10.7226
laka	-10.7227
▁Im	-10.7231
▁mali	-10.7231
▁nahi	-10.7242
▁gwa	-10.7243
ис	-10.7244
▁part	-10.7244
rok	-10.7247
▁Да	-10.7247
tè	-10.7248
▁wɔn	-10.7248
▁zvi	-10.7253
ска	-10.7256
tten	-10.7256
▁DE	-10.7262
iye	-10.7262
ow	-10.7262
▁ман	-10.7263
ڤ	-10.7264
▁Ol	-10.7264
их	-10.7266
že	-10.7267
niya	-10.7268
эк	-10.7268
ⴰⵏ	-10.727
▁St	-10.7271
دە	-10.7272
▁دے	-10.7274
ી	-10.7274
▁Fo	-10.7279
▁سی	-10.7281
ล	-10.7283
ਤ	-10.7292
େ	-10.7293
iwa	-10.7297
rä	-10.7298
▁shì	-10.73
ත්	-10.7302
▁eu	-10.7302
kus	-10.7303
det	-10.7303
▁dh	-10.7304
来	-10.7312
▁që	-10.7313
sek	-10.7314
port	-10.732
pati	-10.7321
▁Yuda	-10.7321
▁mula	-10.7323
gira	-10.7324
लि	-10.7324
kisa	-10.7327
თ	-10.7329
▁tru	-10.733
ர்	-10.7331
▁Ал	-10.7332
یی	-10.7333
▁hay	-10.7334
ën	-10.7336
ก	-10.7337
▁wid	-10.7337
▁syn	-10.7337
èl	-10.734
ន	-10.7342
ጽ	-10.7343
▁out	-10.7345
ገ	-10.7345
ー	-10.7346
лек	-10.7348
тен	-10.7349
▁voi	-10.735
ထ	-10.7351
adu	-10.7352
▁oda	-10.7354
ական	-10.7354
▁tim	-10.736
say	-10.7362
sz	-10.7362
▁kou	-10.7364
▁wis	-10.7365
far	-10.7365
▁samo	-10.7365
bele	-10.7369
▁ica	-10.7369
▁Vo	-10.737
ด	-10.7371
▁theih	-10.7371
вер	-10.7372
aha	-10.7372
▁tatou	-10.7372
▁umui	-10.7375
▁awe	-10.7375
ማ	-10.7378
ebé	-10.7379
▁whaka	-10.7381
▁pol	-10.7386
▁pur	-10.7389
igh	-10.7389
▁لل	-10.7392
zer	-10.7398
ħ	-10.7399
ص	-10.7402
▁অমসুং	-10.7405
▁this	-10.7406
ច	-10.7406
▁oma	-10.7407
▁कली	-10.7407
ర	-10.7414
pili	-10.7415
▁Qu	-10.7422
▁wau	-10.7423
▁pↄ́	-10.7424
▁लोग	-10.7425
لی	-10.7426
रे	-10.7427
اء	-10.7428
▁edia	-10.7428
ክ	-10.7431
▁Can	-10.7432
▁kaha	-10.7432
▁вә	-10.7433
▁ukuthi	-10.7435
κ	-10.744
▁ní	-10.7441
▁dr	-10.7443
▁ade	-10.7448
▁dire	-10.7449
lung	-10.7453
anda	-10.7454
wit	-10.7456
Ш	-10.7457
▁eme	-10.746
▁Pra	-10.7461
ג	-10.7461
▁Ty	-10.7464
▁indi	-10.7465
ย	-10.7465
▁best	-10.7466
gam	-10.7469
为	-10.747
tó	-10.7471
▁τὸ	-10.7474
سا	-10.7478
hulagway	-10.748
ssu	-10.7482
▁ár	-10.7487
phu	-10.7491
tera	-10.7496
ков	-10.7496
▁kalo	-10.7499
▁къы	-10.7499
▁atau	-10.75
ḍ	-10.7502
ደ	-10.7502
▁ode	-10.7503
▁ع	-10.7504
ого	-10.7511
作	-10.7512
gara	-10.7514
мат	-10.7515
ert	-10.7518
▁của	-10.7519
▁dungu	-10.7521
▁την	-10.7521
▁Yahudi	-10.7523
▁нь	-10.7524
▁دە	-10.7527
ph	-10.7527
ಲ್	-10.753
ahi	-10.7532
ук	-10.7534
▁have	-10.7535
▁muntu	-10.7538
and	-10.7542
▁ii	-10.7547
won	-10.7551
tori	-10.7553
mam	-10.7554
▁بي	-10.7554
able	-10.7554
mili	-10.7557
ਸ	-10.7557
▁आनी	-10.7559
▁tañi	-10.7559
Pi	-10.7559
funa	-10.7561
▁program	-10.7562
mpu	-10.7563
品	-10.7563
▁Kĩ	-10.7564
ז	-10.7564
bun	-10.7566
▁cai	-10.7572
nut	-10.7575
▁sabi	-10.7576
liga	-10.7576
▁mapa	-10.7577
ག	-10.7577
anta	-10.7579
ມ	-10.758
▁rej	-10.7581
▁kë	-10.7581
▁Те	-10.7582
新	-10.7583
▁stap	-10.7583
▁valley	-10.7588
▁als	-10.7589
▁ən	-10.7595
▁અને	-10.7595
▁တ	-10.7596
リ	-10.7596
▁olketa	-10.7599
▁yii	-10.7603
▁fram	-10.7606
ᑎ	-10.7608
ക	-10.7611
▁nn	-10.7611
▁nau	-10.7612
Ú	-10.7613
▁ак	-10.7613
دی	-10.7614
▁genus	-10.7615
bay	-10.7618
▁Th	-10.7618
tini	-10.7619
chun	-10.7621
dii	-10.7621
stri	-10.7623
▁خ	-10.7628
▁iru	-10.7628
ká	-10.7629
mil	-10.7632
mia	-10.7637
▁abal	-10.7639
▁alu	-10.7639
▁или	-10.7639
osi	-10.764
хэ	-10.7641
ში	-10.7641
▁maw	-10.7642
▁get	-10.7643
rka	-10.7645
▁სა	-10.7646
া	-10.7653
nene	-10.7654
▁dag	-10.7657
awa	-10.7659
▁Jihova	-10.7659
mor	-10.7659
eka	-10.7666
▁pei	-10.7669
anu	-10.7669
高	-10.7669
▁leswaku	-10.767
▁mande	-10.767
ୁ	-10.7671
▁tuma	-10.7671
▁sol	-10.7672
▁put	-10.7673
▁Zu	-10.7676
tɛ	-10.7676
▁suka	-10.7679
sama	-10.768
too	-10.768
	-10.7682
dad	-10.7685
yer	-10.7685
▁اي	-10.7688
usa	-10.7689
π	-10.7691
▁nochi	-10.7697
▁mbo	-10.7699
kl	-10.7699
ие	-10.7699
▁kh	-10.7704
▁By	-10.7708
ਮ	-10.771
▁sat	-10.7711
къа	-10.7712
ged	-10.7718
▁taga	-10.7718
wr	-10.7718
▁eto	-10.7719
▁udah	-10.772
መ	-10.7721
▁이	-10.7721
▁dohot	-10.7724
▁Tan	-10.7727
lisa	-10.7727
bol	-10.7729
kti	-10.773
▁gara	-10.7732
ಪ	-10.7738
ᓯ	-10.7739
▁ere	-10.774
▁kad	-10.7743
મ	-10.7745
▁dokona	-10.7747
▁सि	-10.7747
tiya	-10.7747
ван	-10.7748
▁bɛɛ	-10.7748
▁rehe	-10.775
!"	-10.7754
▁ने	-10.7757
▁ngoku	-10.776
▁Ter	-10.7764
Э	-10.7769
ill	-10.7773
▁lö	-10.7774
laj	-10.778
▁Pri	-10.7782
nku	-10.7782
च्या	-10.7782
▁Nda	-10.7783
má	-10.7785
▁abe	-10.7786
▁twn	-10.7788
stre	-10.779
yta	-10.779
▁jala	-10.779
her	-10.7792
ສ	-10.7793
nat	-10.7794
▁tor	-10.7796
ܳܐ	-10.7797
▁laga	-10.7799
▁эл	-10.7801
ර	-10.7801
τα	-10.7804
ghi	-10.7808
hal	-10.7812
u̷	-10.7814
▁site	-10.7814
вар	-10.7817
▁деген	-10.7818
▁howa	-10.7818
ció	-10.7819
▁эр	-10.7819
▁ph	-10.7824
kuti	-10.7826
आ	-10.7828
▁ls	-10.7828
▁shang	-10.7829
sir	-10.7829
▁khe	-10.7831
▁libi	-10.7832
manga	-10.7832
ija	-10.7833
▁jaw	-10.7833
▁eller	-10.7834
ಡ್	-10.7837
▁lak	-10.7838
Ɛ	-10.7839
▁File	-10.7843
▁mɨ	-10.7844
som	-10.7845
▁hauv	-10.7845
бе	-10.7846
cc	-10.785
▁tɔ	-10.785
kri	-10.7852
▁pad	-10.7852
▁cas	-10.7857
▁esa	-10.7858
▁beta	-10.7859
▁China	-10.786
▁hè	-10.786
bir	-10.786
▁Ç	-10.7862
leh	-10.7866
▁Ene	-10.7868
swa	-10.7868
▁qhov	-10.787
taki	-10.7872
▁pasi	-10.7873
ǝ	-10.7875
like	-10.7875
bana	-10.7877
▁అ	-10.7881
▁Ку	-10.7882
物	-10.7882
pé	-10.7884
tla	-10.7888
ume	-10.789
uf	-10.7891
unga	-10.7893
λ	-10.7895
▁chun	-10.7896
تی	-10.7896
rada	-10.7897
▁pili	-10.7898
▁more	-10.7899
▁Posted	-10.7902
▁nani	-10.7903
▁muaj	-10.7906
яс	-10.7907
▁غ	-10.7908
‹¤	-10.7911
▁Ма	-10.7913
入	-10.7916
▁вер	-10.7917
ных	-10.7921
ggi	-10.7922
▁yã	-10.7924
ек	-10.7926
alla	-10.7926
ٹ	-10.793
▁Moisés	-10.7932
▁dok	-10.7935
gt	-10.7941
▁him	-10.7946
리	-10.795
▁मन	-10.795
ых	-10.7953
ova	-10.7955
of	-10.7959
▁တၢ်	-10.796
▁mǐ	-10.7961
يا	-10.7965
pal	-10.7965
▁Xa	-10.7967
▁че	-10.7967
ար	-10.7968
▁кар	-10.7969
бан	-10.797
小	-10.7971
ø	-10.7974
▁mà	-10.7976
ут	-10.7976
нинг	-10.7981
▁jak	-10.7981
▁peu	-10.7984
яр	-10.7985
▁Л	-10.7985
▁π	-10.7986
▁dhi	-10.7988
ໄດ້	-10.799
▁الت	-10.7991
▁Aw	-10.7996
▁time	-10.7998
▁pina	-10.8
▁kalak	-10.8
▁zài	-10.8002
▁Paulus	-10.8003
▁inge	-10.8004
▁Pathian	-10.8004
▁tara	-10.8008
▁kuko	-10.801
▁jis	-10.801
国	-10.801
要	-10.8013
▁avek	-10.8017
▁Ар	-10.8021
▁Mac	-10.8022
bɔ	-10.8022
dit	-10.8023
▁bene	-10.8023
mwi	-10.8024
nost	-10.8028
▁tati	-10.8028
▁Google	-10.803
റ	-10.8031
▁vhu	-10.8032
པའི་	-10.8033
▁yuu	-10.8034
dong	-10.8035
رو	-10.8037
▁pr	-10.8038
▁sili	-10.804
ens	-10.8041
�´	-10.8043
йин	-10.8044
▁nte	-10.8044
dika	-10.8046
ake	-10.8046
▁nyo	-10.8047
ರು	-10.8048
▁loko	-10.805
▁yaka	-10.805
▁né	-10.8052
▁Gadu	-10.8052
能	-10.8053
▁too	-10.8055
oom	-10.8056
kuru	-10.8057
uv	-10.8059
▁kiya	-10.8061
টি	-10.8062
wel	-10.8062
ቀ	-10.8063
▁Daniel	-10.8066
▁kó	-10.8068
▁runa	-10.8071
▁mā	-10.8072
gy	-10.8072
ቅ	-10.8072
ಡ	-10.8073
లో	-10.8074
yî	-10.8077
ным	-10.8078
▁terus	-10.8079
ndra	-10.8079
▁tee	-10.8079
ፈ	-10.8086
ín	-10.8087
▁India	-10.8087
▁<	-10.8088
వ	-10.809
▁Txi	-10.8091
▁thaj	-10.8096
ист	-10.8099
гар	-10.81
ді	-10.8102
än	-10.8102
▁laa	-10.8104
▁kr	-10.8106
▁Yahova	-10.8106
кі	-10.8107
▁naxa	-10.8111
ün	-10.8112
▁τὴν	-10.8112
baa	-10.8112
▁kut	-10.8116
▁mae	-10.8116
▁бай	-10.8117
जा	-10.8117
▁way	-10.8117
shpa	-10.8118
liya	-10.8118
▁Ut	-10.8121
▁kura	-10.8123
▁amy	-10.8123
Л	-10.8124
mmi	-10.8125
pur	-10.8126
▁pani	-10.8126
▁गे	-10.8127
▁أو	-10.8131
▁tia	-10.8137
▁dapat	-10.8138
▁esta	-10.8142
бар	-10.8142
്	-10.8143
▁mao	-10.8143
▁katu	-10.8146
▁ڤ	-10.8152
vit	-10.8153
të	-10.8154
▁آپ	-10.8154
▁Но	-10.8156
▁toi	-10.8156
maan	-10.816
▁wax	-10.8168
▁Gusti	-10.817
gl	-10.8175
▁osi	-10.8176
tee	-10.8176
▁हैं	-10.8179
▁rey	-10.8179
▁pele	-10.818
▁kumu	-10.8183
▁وی	-10.8183
▁gare	-10.8183
▁sab	-10.8184
ང་	-10.8189
▁إلى	-10.8189
▁nib	-10.8189
iji	-10.819
रि	-10.8194
▁boi	-10.8197
▁taun	-10.82
hara	-10.8202
▁mola	-10.8205
nit	-10.8208
▁nje	-10.821
▁ಸ	-10.8211
▁…	-10.8213
sara	-10.8213
cal	-10.8215
tala	-10.8216
tima	-10.8216
▁lè	-10.8216
▁ayaa	-10.8217
▁Post	-10.8217
▁@	-10.8218
▁ху	-10.8218
ŋi	-10.822
dus	-10.8222
▁Search	-10.8224
ात	-10.823
▁እና	-10.8231
▁luk	-10.8234
▁niha	-10.8239
ìž	-10.8242
▁awo	-10.8242
anan	-10.8242
kpa	-10.8244
jet	-10.8244
mik	-10.8245
▁نو	-10.8246
tshi	-10.8248
oto	-10.8253
▁mma	-10.8254
▁kra	-10.8257
▁web	-10.826
▁հ	-10.8264
ط	-10.8265
▁Nge	-10.8267
gor	-10.8269
▁kanggo	-10.8271
▁lou	-10.8272
ces	-10.8273
▁зы	-10.8277
▁kunye	-10.828
▁ಕ	-10.828
▁make	-10.8281
▁sò	-10.8282
log	-10.8284
ngka	-10.8287
pit	-10.8287
हा	-10.8288
ити	-10.8289
▁काम	-10.8291
ރު	-10.8291
§€	-10.8293
хъ	-10.8294
ⁿ	-10.8295
▁obu	-10.8295
▁tutu	-10.8295
paka	-10.8296
▁đ	-10.8297
ան	-10.8299
▁хар	-10.8302
cen	-10.8303
illa	-10.8307
ção	-10.8307
▁tempo	-10.831
lee	-10.831
▁daga	-10.8316
dol	-10.8316
የ	-10.8319
bot	-10.8324
▁mgo	-10.8325
є	-10.8326
り	-10.8326
स्य	-10.8337
ló	-10.8337
▁mafai	-10.8341
▁fen	-10.8342
ች	-10.8345
ÛŒ	-10.835
bba	-10.8351
rana	-10.8351
nica	-10.8356
▁ikke	-10.8356
▁shen	-10.8357
▁bao	-10.836
▁lung	-10.8363
ו	-10.8364
▁dou	-10.8366
hol	-10.8367
▁maq	-10.8368
udi	-10.8371
Ч	-10.8371
tul	-10.8371
▁one	-10.8374
▁ре	-10.8374
Do	-10.8374
bii	-10.8375
Á	-10.8379
langa	-10.8381
▁кол	-10.8381
▁jach	-10.8384
mur	-10.8385
бу	-10.8387
▁jich	-10.8389
ró	-10.8389
▁Р	-10.8391
llan	-10.8396
¥¼	-10.8398
▁mingi	-10.84
▁mare	-10.84
▁blog	-10.8402
▁ow	-10.8403
diya	-10.8403
bbi	-10.8405
▁anhia	-10.8406
▁आहे	-10.8407
ಮ	-10.841
rri	-10.8416
గా	-10.8418
अ	-10.8418
▁wata	-10.842
▁zoo	-10.842
▁Son	-10.8422
pari	-10.8423
▁ша	-10.8425
алъул	-10.8433
eya	-10.8439
▁ngai	-10.844
▁bw	-10.8441
▁Ek	-10.8442
▁ngii	-10.8444
▁col	-10.8447
uz	-10.8447
▁yuav	-10.8447
fia	-10.8449
mbang	-10.845
ť	-10.8451
mey	-10.8451
▁út	-10.8456
skej	-10.8457
añ	-10.8458
▁qua	-10.846
▁tura	-10.846
tru	-10.8461
▁سر	-10.8463
rre	-10.8469
法	-10.8471
▁chaw	-10.8472
уу	-10.8472
has	-10.8477
ท	-10.8478
ો	-10.8483
▁ruma	-10.8489
тор	-10.849
ോ	-10.8492
▁फ	-10.8494
llen	-10.8495
ls	-10.8495
dzo	-10.8498
ว	-10.8499
କ	-10.8499
▁ü	-10.8503
IR	-10.8514
▁Tapi	-10.8516
Ꮫ	-10.8518
▁για	-10.8518
▁ክ	-10.8518
rî	-10.8519
ሊ	-10.852
esi	-10.8521
nosti	-10.8521
理	-10.8522
▁halu	-10.8523
▁کە	-10.8523
▁naq	-10.8525
بر	-10.8526
어	-10.8528
▁bữn	-10.8528
dag	-10.8529
ತ್	-10.853
▁meu	-10.8536
лэн	-10.8538
eren	-10.8538
會	-10.854
▁adu	-10.854
▁lor	-10.8541
ო	-10.8542
bé	-10.8545
▁hene	-10.8546
ේ	-10.8547
kov	-10.8547
awo	-10.8548
▁And	-10.8549
ಗ	-10.8553
Su	-10.8553
cie	-10.8555
ɔɔ	-10.8556
bas	-10.8557
▁wak	-10.8558
▁bul	-10.8559
ала	-10.8559
eki	-10.8561
▁hoj	-10.8563
▁bro	-10.8563
mali	-10.8566
mej	-10.857
▁imi	-10.857
He	-10.857
sad	-10.857
▁nöö	-10.8572
ांत	-10.8572
lip	-10.8573
▁ake	-10.8574
cer	-10.8575
▁duh	-10.8576
▁pena	-10.8576
ски	-10.8577
▁Kɛ	-10.8577
ìŠ	-10.8578
▁than	-10.858
▁kiba	-10.8582
▁anjo	-10.8582
本	-10.8584
ехь	-10.8584
је	-10.8585
ܘ	-10.8585
▁teh	-10.8586
зу	-10.8586
▁އަ	-10.8586
Ꭿ	-10.859
ர	-10.8596
нг	-10.8599
▁bela	-10.8599
kati	-10.8602
▁foto	-10.8604
▁manu	-10.8605
kak	-10.8607
nsa	-10.861
bwa	-10.8612
▁бе	-10.8612
ες	-10.8613
ၤ	-10.8614
▁hk	-10.8614
buk	-10.8615
イ	-10.8616
▁your	-10.8617
ေ	-10.8618
rey	-10.8619
χ	-10.8623
▁نے	-10.8624
▁mm	-10.8626
▁taq	-10.8629
▁poi	-10.863
amba	-10.8633
▁upp	-10.8634
ต	-10.8637
▁ಬ	-10.8638
▁popo	-10.8639
pada	-10.864
—	-10.8644
▁khan	-10.8645
ayo	-10.8646
rti	-10.865
hay	-10.8654
▁سان	-10.8655
▁ᐱ	-10.8656
▁vous	-10.8657
▁xua	-10.8659
ቱ	-10.8663
sika	-10.8663
ര	-10.8663
ъяс	-10.8664
shca	-10.8665
▁tas	-10.8667
tí	-10.867
ਰ	-10.8674
▁pha	-10.8674
ܬ	-10.8675
eji	-10.8676
tiv	-10.8676
Chitonga	-10.8678
ೆ	-10.868
kele	-10.868
ض	-10.8683
▁על	-10.8683
▁val	-10.8683
▁tem	-10.8686
▁пра	-10.8688
нә	-10.8689
taq	-10.869
▁mahi	-10.8691
▁ز	-10.8693
vad	-10.8698
▁yw	-10.8698
ина	-10.8699
ڻ	-10.87
▁avan	-10.87
▁ही	-10.8702
but	-10.8703
jat	-10.8704
चे	-10.8705
oq	-10.8726
toj	-10.8736
ssen	-10.8737
▁Jiova	-10.8738
▁lain	-10.874
▁chang	-10.8742
жы	-10.8742
▁Val	-10.8743
rde	-10.8744
kua	-10.8746
naka	-10.8746
▁Alata	-10.8747
lic	-10.8748
lä	-10.8749
▁naan	-10.875
bai	-10.8754
ត	-10.8754
▁cati	-10.8755
nh	-10.8756
▁Yésus	-10.8756
ສະ	-10.8756
ގައި	-10.876
ˇ-	-10.8761
kko	-10.8761
▁हल	-10.8763
▁अपन	-10.8763
▁kẹ	-10.8765
▁kul	-10.8765
тә	-10.8765
bara	-10.8766
▁ebi	-10.877
gs	-10.877
bya	-10.877
ів	-10.8774
▁Krais	-10.8778
ام	-10.8779
nden	-10.878
ngen	-10.8787
▁bula	-10.8788
eva	-10.879
▁dali	-10.8791
ခ	-10.8791
title	-10.8792
▁saya	-10.8792
▁mli	-10.8793
▁malo	-10.8802
▁mera	-10.8802
php	-10.8804
▁Diospa	-10.8806
хьа	-10.8807
ⵔ	-10.8808
कार	-10.8808
rig	-10.8808
chem	-10.8809
▁dilo	-10.881
▁toh	-10.8814
cija	-10.8816
ego	-10.8817
▁tale	-10.8817
umi	-10.8818
Ca	-10.8818
▁cam	-10.8819
ד	-10.8822
hé	-10.8823
vr	-10.8824
gana	-10.8825
zya	-10.8826
रो	-10.8828
▁koko	-10.883
▁mange	-10.8832
ង	-10.8832
cita	-10.8836
▁από	-10.8837
▁trans	-10.8838
کی	-10.8838
omu	-10.884
▁estas	-10.8841
▁noko	-10.8842
уз	-10.8842
▁jab	-10.8842
май	-10.8844
▁bur	-10.8845
▁Nan	-10.8845
ٱ	-10.8847
law	-10.8848
mena	-10.8849
º	-10.8851
▁dum	-10.8852
▁sunt	-10.8854
▁mü	-10.8855
কে	-10.8857
нен	-10.8858
dek	-10.8858
ర్	-10.8859
ᐃ	-10.8861
pana	-10.8862
▁ñe	-10.8862
▁मु	-10.8863
ಗ್	-10.8865
▁Ap	-10.8866
лери	-10.8866
kes	-10.8867
वे	-10.8868
nel	-10.8872
ാ	-10.8873
▁እ	-10.8874
І	-10.8877
好	-10.8877
çon	-10.8878
▁roz	-10.888
▁sul	-10.8882
▁yich	-10.8883
ܣ	-10.8885
noj	-10.8886
▁dá	-10.8888
ох	-10.8888
க்க	-10.8888
gur	-10.8891
▁ɖó	-10.8891
▁res	-10.8893
▁xiang	-10.8894
▁tung	-10.8894
rir	-10.8896
▁seu	-10.8897
དང་	-10.8897
ዝ	-10.89
rama	-10.8905
bọ	-10.8906
lü	-10.8906
名	-10.8906
▁Han	-10.8907
▁ngeni	-10.8909
▁Jun	-10.891
bile	-10.891
▁spo	-10.8912
Pe	-10.8913
nc	-10.8913
▁sung	-10.8914
nun	-10.8917
▁vino	-10.892
bak	-10.892
▁kele	-10.8921
▁nom	-10.8922
¥	-10.8922
ା	-10.8923
▁pus	-10.8923
জ	-10.8925
ғы	-10.8927
▁sch	-10.8929
▁yai	-10.893
▁mot	-10.893
性	-10.8933
▁nabi	-10.8934
▁under	-10.8935
」	-10.8936
▁Jehovha	-10.8939
સ	-10.894
▁آلات	-10.8942
Gbè	-10.8943
wun	-10.8946
ον	-10.8947
އް	-10.8949
▁يڠ	-10.8952
▁gid	-10.8952
▁гу	-10.8953
▁мы	-10.8954
ał	-10.8958
▁kri	-10.896
▁super	-10.896
ille	-10.8961
nↄ	-10.8961
༔	-10.8963
koi	-10.8963
▁quan	-10.8967
nɔ	-10.8967
▁ᐊ	-10.8968
▁Ah	-10.8969
▁II	-10.897
▁thil	-10.8971
mate	-10.8971
од	-10.8972
▁kao	-10.8972
來	-10.8973
ሩ	-10.8973
▁Yerusalem	-10.8977
▁Op	-10.8979
¸°	-10.8979
sum	-10.898
ύ	-10.8981
وم	-10.8981
▁dì	-10.8985
▁सब	-10.8986
weni	-10.8987
▁bá	-10.8989
kup	-10.8989
mari	-10.8993
▁mmọ	-10.8993
▁jen	-10.8994
мет	-10.8997
▁¡	-10.8998
kap	-10.8999
ramo	-10.8999
▁pru	-10.8999
eve	-10.9
ví	-10.9
▁Apa	-10.9005
▁мал	-10.9006
ъя	-10.9007
し	-10.9008
▁مو	-10.901
▁internet	-10.9011
sso	-10.9014
raa	-10.9016
idade	-10.9025
▁see	-10.9027
ngwa	-10.9029
▁toko	-10.903
▁ela	-10.9032
▁iyan	-10.9034
នេះ	-10.9035
inu	-10.9036
▁chon	-10.9043
▁sü	-10.9046
▁xian	-10.9046
уэ	-10.9046
▁tx	-10.9048
sus	-10.9048
ල	-10.9049
्या	-10.905
▁raja	-10.906
▁nach	-10.9064
▁Os	-10.9065
定	-10.9065
▁пол	-10.9066
▁hono	-10.9067
ně	-10.9069
▁ہو	-10.907
▁স	-10.907
jal	-10.907
ով	-10.9073
得	-10.9074
▁Huan	-10.9074
▁kako	-10.9074
rɨ	-10.9075
か	-10.9075
age	-10.9075
▁kolo	-10.9077
dua	-10.9077
▁će	-10.908
ची	-10.9081
▁lugar	-10.9082
▁më	-10.9083
maya	-10.9084
će	-10.9085
ebe	-10.9086
kis	-10.9086
ថា	-10.9087
▁August	-10.9088
lè	-10.9088
uga	-10.9089
৷	-10.909
▁Asa	-10.9093
▁Sara	-10.9094
▁any	-10.9095
wɛ	-10.9097
▁ukuba	-10.9098
▁rogo	-10.9101
▁adalah	-10.9101
ση	-10.9102
▁ਦਾ	-10.9103
▁Eli	-10.9106
▁ubu	-10.9107
ಗೆ	-10.9108
br	-10.911
▁Cho	-10.9111
▁дене	-10.9111
▁seni	-10.9112
stro	-10.9116
▁ukuti	-10.9117
▁vor	-10.9118
dig	-10.9118
ר	-10.9118
▁mane	-10.9119
▁agi	-10.912
kiri	-10.9121
եր	-10.9124
Â	-10.9125
mula	-10.9125
ной	-10.9127
်	-10.9128
ive	-10.9129
▁Chin	-10.9129
▁bele	-10.913
lun	-10.9136
ху	-10.9136
▁bij	-10.9137
ী	-10.9137
▁Sin	-10.9137
▁bɑ	-10.9137
之	-10.9137
ér	-10.9137
ид	-10.9138
ið	-10.9138
▁chak	-10.914
लाई	-10.914
▁ব	-10.914
baka	-10.9142
▁October	-10.9143
ി	-10.9144
ыд	-10.9146
imo	-10.9147
▁चा	-10.9147
▁sb	-10.9148
ல	-10.9157
rta	-10.9159
▁που	-10.916
▁skal	-10.9163
▁ס	-10.9164
oso	-10.9165
зь	-10.9167
▁Qa	-10.9167
▁bato	-10.9167
lega	-10.9168
ува	-10.9169
金	-10.9169
ᓇ	-10.9171
▁без	-10.9171
gia	-10.9172
မှာ	-10.9172
ܟ	-10.9173
ա	-10.9173
▁nav	-10.9175
前	-10.9178
▁yic	-10.9182
▁ekewe	-10.9182
▁top	-10.9186
▁ungu	-10.9186
▁zan	-10.9188
▁बात	-10.9188
cs	-10.9189
pla	-10.9189
▁qab	-10.9189
▁ဒီး	-10.919
تى	-10.919
mmer	-10.9194
▁និង	-10.9195
▁fala	-10.9196
▁Са	-10.9198
maka	-10.92
▁Kwa	-10.9201
Bu	-10.9201
ڪ	-10.9203
▁bê	-10.9205
yun	-10.9207
fel	-10.9209
уб	-10.921
hs	-10.9212
Lo	-10.9216
mir	-10.9216
学	-10.9217
muna	-10.9217
▁إ	-10.9218
pol	-10.922
▁kandi	-10.9224
nal	-10.9224
tii	-10.9228
▁cheng	-10.9228
▁dati	-10.9229
olu	-10.9231
yel	-10.9232
▁ца	-10.9232
▁hati	-10.9232
dá	-10.9233
▁сы	-10.9233
nı	-10.9234
rup	-10.9235
க	-10.9236
ەوە	-10.9237
ᐊ	-10.9238
▁tol	-10.9239
maj	-10.9239
mut	-10.9241
ਣ	-10.9246
malad	-10.9249
▁ande	-10.9249
▁عن	-10.9249
▁ܡ	-10.9249
lya	-10.925
mh	-10.925
▁ï	-10.925
▁pana	-10.9251
▁Rü	-10.9251
ᓂᒃ	-10.9253
assa	-10.9255
اً	-10.9257
trg	-10.9258
▁বা	-10.926
тон	-10.9261
kita	-10.9261
▁MA	-10.9262
sul	-10.9263
naga	-10.9263
lha	-10.9264
ote	-10.9266
▁guan	-10.927
ري	-10.9271
▁uka	-10.9271
▁luma	-10.9272
يت	-10.9272
▁tus	-10.9274
▁kɨ	-10.9274
▁pm	-10.9276
jana	-10.9281
ꨓ	-10.9281
tuu	-10.9282
▁Saul	-10.9282
ய	-10.9285
▁ino	-10.9288
pura	-10.9288
▁йыл	-10.9288
ܒ	-10.9288
▁leat	-10.9292
▁lag	-10.9293
ffi	-10.9294
▁vol	-10.9297
wh	-10.93
▁asu	-10.93
وی	-10.9302
▁sve	-10.9304
гь	-10.9304
▁help	-10.9306
ཀྱི་	-10.9306
naa	-10.9308
ɖe	-10.9309
▁lebih	-10.9314
kii	-10.9315
бо	-10.9316
▁Kar	-10.9316
eto	-10.9317
ő	-10.9318
▁zhu	-10.9319
▁auto	-10.9321
হ	-10.9321
▁catli	-10.9321
▁Adam	-10.933
bolo	-10.933
த்த	-10.9331
ple	-10.9332
wil	-10.9334
ಿ	-10.9337
inde	-10.9338
▁aramas	-10.934
ction	-10.9342
▁Tim	-10.9344
▁Az	-10.935
▁bialu	-10.9351
amente	-10.9351
сти	-10.9353
▁taw	-10.9354
加	-10.9354
▁will	-10.9354
▁পা	-10.9356
▁yango	-10.9357
▁aha	-10.9357
fala	-10.9358
▁މި	-10.9361
kā	-10.9361
ità	-10.9362
kli	-10.9364
ҫ	-10.9365
▁ŋ	-10.9365
ash	-10.9366
▁пре	-10.9371
【	-10.9372
▁rumah	-10.9372
▁Les	-10.9373
dum	-10.9374
indi	-10.9374
ties	-10.9374
कर	-10.9376
влӓ	-10.9379
▁gw	-10.9379
кы	-10.938
zhe	-10.9382
▁daa	-10.9383
▁bagi	-10.9384
col	-10.9384
▁dio	-10.9385
▁udi	-10.9388
▁tsis	-10.939
▁mekem	-10.9391
▁ка	-10.9391
tawa	-10.9392
ła	-10.9393
▁adolah	-10.9394
obo	-10.9397
għ	-10.9402
▁Sal	-10.9402
▁кон	-10.9404
dz	-10.9404
sima	-10.9404
rere	-10.9405
leb	-10.9408
▁batu	-10.9408
rei	-10.9408
नो	-10.9409
sap	-10.941
اد	-10.9411
index	-10.9412
▁Online	-10.9414
лә	-10.9415
▁kont	-10.9415
ത	-10.9417
▁க	-10.9419
▁Nou	-10.9419
ꞌi	-10.942
▁sada	-10.9421
▁Van	-10.9423
▁alới	-10.9424
面	-10.9429
pad	-10.9429
sol	-10.9433
▁Kor	-10.9433
ٕ	-10.9434
▁Swahili	-10.9435
文	-10.9438
▁się	-10.9438
▁sibawa	-10.944
ہٕ	-10.9441
зын	-10.9444
▁day	-10.9444
▁duo	-10.9453
▁сал	-10.9455
ét	-10.9455
▁cap	-10.9456
ා	-10.9456
cur	-10.9458
ܝ	-10.9458
эз	-10.9459
▁bix	-10.9459
यो	-10.946
▁disi	-10.9463
▁Tura	-10.9465
▁dara	-10.9465
laga	-10.9469
ക്ക	-10.9471
hit	-10.9473
▁nwo	-10.9477
ແລະ	-10.9479
ّ	-10.948
▁hore	-10.9482
▁kim	-10.9485
▁buku	-10.9486
▁Ю	-10.9486
▁пар	-10.9487
ats	-10.9487
ק	-10.9488
▁dur	-10.9489
ବ	-10.9489
wng	-10.9489
aji	-10.95
isha	-10.95
рен	-10.95
ǵa	-10.9501
xon	-10.9504
ه‌	-10.9506
▁urang	-10.9507
▁jas	-10.9511
ב	-10.9512
▁Der	-10.9513
 	-10.9514
chel	-10.9515
lɩ	-10.9516
▁Mam	-10.9516
▁ఆ	-10.9516
▁Ac	-10.9516
▁raba	-10.9517
▁જ	-10.9517
wl	-10.9517
▁नं	-10.9522
аль	-10.9522
▁kadi	-10.9523
▁Yéhôva	-10.9524
gos	-10.9524
▁isang	-10.9525
ian	-10.9525
ո	-10.9526
lde	-10.9526
তা	-10.9527
ws	-10.9528
yt	-10.953
sio	-10.9543
pra	-10.9544
度	-10.9547
▁kani	-10.9549
▁hata	-10.955
তি	-10.9552
shon	-10.9553
▁mona	-10.9553
▁aban	-10.9557
uki	-10.9559
▁opo	-10.9559
abu	-10.9559
▁kú	-10.956
▁xing	-10.9561
▁mel	-10.9563
nyu	-10.9566
انی	-10.957
walo	-10.9573
нер	-10.9575
▁Sie	-10.9577
자	-10.9577
▁ہے۔	-10.9587
फ	-10.9588
kla	-10.959
以	-10.959
시	-10.959
▁Бо	-10.9592
▁ved	-10.9595
Ꮒ	-10.9595
▁我	-10.9595
गा	-10.9595
ע	-10.9596
प्र	-10.9597
omo	-10.9597
limo	-10.9599
Nu	-10.96
▁Š	-10.9601
die	-10.9602
khat	-10.9604
lus	-10.9605
khala	-10.9606
छ	-10.9608
ु	-10.9608
ری	-10.9608
сн	-10.961
▁Ban	-10.9611
也	-10.9612
သေ	-10.9613
▁paka	-10.9614
▁wang	-10.9615
▁Mat	-10.9615
▁teu	-10.9617
ée	-10.9618
Ar	-10.962
bɛ	-10.9624
個	-10.9625
▁reng	-10.9625
ಲಿ	-10.9627
▁က	-10.9627
▁कु	-10.9627
тин	-10.9627
▁bag	-10.9632
▁mwe	-10.9632
nze	-10.9633
nner	-10.9634
▁эс	-10.9634
hem	-10.9636
▁mako	-10.9638
▁bae	-10.9638
key	-10.9639
मि	-10.9642
▁gun	-10.9644
ndan	-10.9644
▁بار	-10.9644
kay	-10.9645
▁Android	-10.9646
„	-10.9648
âl	-10.9648
▁kheueh	-10.9649
క	-10.9653
quin	-10.9656
▁ú	-10.9657
▁Jerusalén	-10.966
gir	-10.966
ં	-10.9662
pt	-10.9662
▁বি	-10.9662
ू	-10.9663
▁ப	-10.9663
▁tzet	-10.9664
rung	-10.9669
ți	-10.9669
guru	-10.9675
▁tënë	-10.9678
▁فروش	-10.9678
tica	-10.9678
▁nous	-10.9679
▁till	-10.968
合	-10.968
▁ক	-10.9687
ೀ	-10.9688
▁ula	-10.9689
kang	-10.969
发	-10.9691
▁DI	-10.9692
sed	-10.9696
▁bio	-10.9701
▁had	-10.9702
▁bè	-10.9702
வ	-10.9709
▁tsu	-10.9709
스	-10.9711
▁кай	-10.9711
bli	-10.9712
hnak	-10.9712
ًا	-10.9714
▁Ee	-10.9716
rm	-10.9717
etu	-10.9718
Е	-10.9722
▁loku	-10.9724
▁Sh	-10.9724
ary	-10.9729
иг	-10.9729
дай	-10.973
▁vit	-10.9734
The	-10.9734
▁abu	-10.9734
▁tö	-10.9735
▁koma	-10.9736
ct	-10.9737
oi	-10.9737
ർ	-10.9738
လာ	-10.9739
▁hang	-10.974
▁ও	-10.9741
▁mill	-10.9742
▁els	-10.9744
▁ᎯᎠ	-10.9745
эт	-10.9745
▁юм	-10.9747
▁ting	-10.9747
▁kle	-10.975
ān	-10.9751
kari	-10.9751
▁Mulungu	-10.9752
ག་	-10.9755
ᒋ	-10.9757
ҳ	-10.9759
dɛ	-10.9763
▁спорт	-10.9765
nci	-10.9772
▁ganny	-10.9773
も	-10.9773
▁sik	-10.9777
ḡa	-10.9777
网	-10.9777
ons	-10.978
ann	-10.978
▁lino	-10.9781
▁ایک	-10.9782
ÛŒØ	-10.9786
▁მო	-10.9787
là	-10.9789
▁tà	-10.979
лъ	-10.9791
▁ger	-10.9792
sku	-10.9793
pil	-10.9794
ኣ	-10.9794
▁vie	-10.9795
▁halak	-10.9796
▁керек	-10.9796
kaw	-10.9798
tino	-10.9799
ونو	-10.9799
Yo	-10.98
لي	-10.98
nka	-10.9801
riki	-10.9803
μα	-10.9804
liyo	-10.9804
jil	-10.9807
mine	-10.9808
даа	-10.9809
sí	-10.9809
ਪ	-10.981
gil	-10.9811
▁ngon	-10.9815
▁suo	-10.9816
мин	-10.9817
▁وي	-10.9817
▁Jezu	-10.9818
▁pian	-10.9819
▁nĩ	-10.9821
ێ	-10.9821
▁koi	-10.9821
▁Com	-10.9823
▁henia	-10.9823
rab	-10.9825
sco	-10.9826
▁egy	-10.9828
ins	-10.9829
ther	-10.9829
нын	-10.983
वर	-10.9831
▁į	-10.9832
တာ	-10.9833
▁ପ	-10.9835
க்	-10.9838
="	-10.9838
ป	-10.984
▁mir	-10.984
ⴷ	-10.9841
ʉ	-10.9844
▁fl	-10.9844
uda	-10.9845
akan	-10.9846
ος	-10.9846
rqa	-10.9849
sche	-10.985
▁Ко	-10.9852
শিং	-10.9852
uke	-10.9855
тнень	-10.9856
▁अब	-10.9857
igu	-10.9858
Ri	-10.9858
▁tapu	-10.9859
▁Ara	-10.9859
▁kol	-10.986
▁dho	-10.9862
▁media	-10.9863
▁bik	-10.9865
▁tša	-10.9865
pay	-10.9865
rina	-10.9866
▁pul	-10.9867
lima	-10.9868
fra	-10.9868
kta	-10.987
▁Bir	-10.9872
▁lí	-10.9874
يل	-10.9876
dara	-10.9879
ڽ	-10.988
▁fang	-10.9881
Ɔ	-10.9883
▁Sar	-10.9884
bb	-10.9886
ರೆ	-10.9889
▁pros	-10.9891
лт	-10.9891
كن	-10.9894
▁lit	-10.9894
çe	-10.9894
�„	-10.9894
át	-10.9895
కు	-10.9899
▁Wal	-10.99
rau	-10.99
sɛ	-10.9902
टा	-10.9903
ၶ	-10.9905
▁eki	-10.9908
▁tie	-10.991
ddu	-10.9911
ད	-10.9914
ته	-10.9917
▁modern	-10.9917
ܩ	-10.9919
tsik	-10.9919
▁March	-10.992
▁छी	-10.9921
▁TV	-10.9921
ice	-10.9925
ଲ	-10.9925
রা	-10.9926
raz	-10.9928
джы	-10.993
▁data	-10.9935
▁ο	-10.9938
sua	-10.9938
قا	-10.994
時	-10.994
▁Next	-10.9941
▁bla	-10.9941
▁мед	-10.9941
ස	-10.9943
▁opp	-10.9944
lja	-10.9945
mera	-10.9946
ikai	-10.9946
ல்	-10.9948
自	-10.9949
▁kↄ̃n	-10.995
▁bel	-10.995
▁meke	-10.9951
▁iban	-10.9951
▁gat	-10.9951
ሱ	-10.9953
▁gy	-10.9955
▁ipa	-10.9956
▁kaŋ	-10.9957
▁بال	-10.9957
ico	-10.9959
nana	-10.996
▁Penis	-10.996
muni	-10.996
्य	-10.9961
▁saray	-10.9962
‰	-10.9962
०	-10.9965
င္	-10.9966
▁kene	-10.9966
ၣ်	-10.9968
lwe	-10.9969
▁seh	-10.9969
ونه	-10.9969
ňi	-10.997
▁অসি	-10.9971
▁geu	-10.9972
kra	-10.9972
kop	-10.9976
▁ܠ	-10.9976
ων	-10.9979
▁ہیں	-10.998
ወ	-10.998
▁মা	-10.998
биле	-10.9987
▁kati	-10.9989
haw	-10.999
any	-10.9992
▁दिन	-10.9992
▁KA	-10.9995
事	-10.9997
kina	-10.9997
】【	-10.9999
sut	-10.9999
nnen	-10.9999
▁Apple	-11
ၸ	-11.0003
▁eba	-11.0004
▁sil	-11.0004
zza	-11.0006
▁cứq	-11.0006
▁Simon	-11.0007
▁ont	-11.0007
▁taimi	-11.0008
mä	-11.0008
▁jou	-11.0009
▁হ	-11.001
यात	-11.0012
leka	-11.0012
▁Jon	-11.0014
▁ਸ	-11.0014
tə	-11.0015
▁joo	-11.0016
▁aq	-11.0018
同	-11.0019
icha	-11.002
▁ũ	-11.0025
水	-11.0026
œë	-11.0027
ער	-11.0028
kok	-11.0029
kir	-11.0031
▁wolo	-11.0031
인	-11.0032
▁tay	-11.0034
▁maar	-11.0034
▁dà	-11.0039
▁sö	-11.0041
vil	-11.0043
▁eva	-11.0044
സ	-11.0047
▁τῆς	-11.0048
ເປັນ	-11.0049
▁Yus	-11.0052
lary	-11.0053
▁diya	-11.0054
ree	-11.0056
ларда	-11.0062
fon	-11.0063
▁ده	-11.0066
▁تہٕ	-11.007
▁учун	-11.007
▁pampa	-11.0071
bah	-11.0072
▁veur	-11.0072
▁più	-11.0072
polo	-11.0072
▁samting	-11.0073
ဝဲ	-11.0073
ier	-11.0076
▁tše	-11.0076
▁අ	-11.0077
дор	-11.0077
▁Nahuatl	-11.0078
ੂ	-11.0078
▁Ei	-11.0079
▁τα	-11.008
pä	-11.008
www	-11.0082
git	-11.0086
লি	-11.0086
▁toera	-11.0092
ҡ	-11.0098
▁жа	-11.01
ակ	-11.0102
▁kawa	-11.0103
ού	-11.0105
https	-11.0106
▁if	-11.0109
هم	-11.0111
▁כ	-11.0113
▁ying	-11.0114
ło	-11.0114
▁social	-11.0116
▁bí	-11.0118
▁tiah	-11.012
▁causa	-11.012
Chi	-11.0121
▁ара	-11.0121
vam	-11.0121
മ	-11.0123
▁rupi	-11.0124
▁ⴰ	-11.0125
rima	-11.0125
អ	-11.0125
▁зэ	-11.0127
ട	-11.0128
▁kple	-11.0132
▁yɔɔ	-11.0133
lika	-11.0133
▁guna	-11.0134
vali	-11.0137
̂	-11.0145
·¸	-11.0145
ទៅ	-11.0149
▁June	-11.0151
ән	-11.0153
▁produ	-11.0155
ismo	-11.0155
ⵙ	-11.0155
▁nono	-11.0156
sü	-11.0157
▁yỗn	-11.0157
nú	-11.0157
▁tə	-11.0158
hel	-11.0159
▁pya	-11.0159
▁kö	-11.016
▁Fer	-11.0161
▁riq	-11.0162
▁nim	-11.0165
▁boe	-11.0167
kem	-11.0167
tı	-11.0168
▁și	-11.0169
▁tab	-11.0172
▁Bet	-11.0175
yd	-11.0175
لار	-11.0175
▁uno	-11.0176
▁eko	-11.0176
enza	-11.0177
▁uni	-11.0177
@	-11.0177
эрэ	-11.0181
сыз	-11.0181
ત	-11.0181
rian	-11.0182
▁cur	-11.0184
kile	-11.0186
થી	-11.0187
	-11.0187
ča	-11.0188
▁nuka	-11.0189
▁deka	-11.019
▁juon	-11.019
они	-11.019
▁servi	-11.0191
bela	-11.0191
Du	-11.0192
▁ec	-11.0193
▁blanga	-11.0193
▁аф	-11.0193
dee	-11.0194
▁η	-11.0195
▁lobi	-11.0195
▁gaq	-11.0196
ڠ	-11.0199
mento	-11.02
зар	-11.0201
▁کرد	-11.0202
من	-11.0203
را	-11.0205
▁щы	-11.0205
▁То	-11.0207
dä	-11.0208
ህ	-11.0208
uju	-11.0208
▁stra	-11.0209
▁máh	-11.0209
ቃ	-11.021
taca	-11.021
者	-11.021
▁Solomon	-11.0212
「	-11.0215
▁ናይ	-11.0215
éel	-11.0216
▁aso	-11.0217
▁tic	-11.0218
juk	-11.022
▁zwa	-11.0221
▁kes	-11.0223
▁לא	-11.0224
lau	-11.0226
▁Creole	-11.0227
ifi	-11.0227
▁sobre	-11.0227
ಾ	-11.0227
saj	-11.0228
▁À	-11.0229
▁bese	-11.023
▁Sta	-11.0231
▁test	-11.0234
▁بعد	-11.0236
就	-11.0237
ɔn	-11.0239
▁ul	-11.024
ቡ	-11.0242
과	-11.0242
တိ	-11.0243
▁νὰ	-11.0244
▁cabinet	-11.0245
看	-11.0246
▁Satan	-11.0248
យ	-11.0249
▁ווי	-11.0252
агъ	-11.0255
gari	-11.0257
؛	-11.0258
▁Om	-11.026
သူ	-11.0261
▁सो	-11.0261
moni	-11.0262
ـ	-11.0264
▁####	-11.0265
▁bili	-11.0265
▁এই	-11.0265
代	-11.0267
З	-11.027
▁n̄an	-11.0271
▁الع	-11.0272
▁tali	-11.0272
▁خود	-11.0272
▁wana	-11.0273
▁menm	-11.0279
ከ	-11.0282
▁dili	-11.0283
▁ἡ	-11.0284
▁ū	-11.0285
▁Kristu	-11.0287
▁bru	-11.0288
ici	-11.029
▁pie	-11.0291
awi	-11.0293
▁abantu	-11.0294
▁хо	-11.0295
力	-11.0296
ड़	-11.0296
▁hor	-11.0296
anti	-11.0298
▁juu	-11.0298
rma	-11.0298
Po	-11.0299
▁oy	-11.0299
.”​—	-11.03
bes	-11.0301
hlo	-11.0302
quot	-11.0304
cat	-11.0305
▁hina	-11.0306
टी	-11.0308
Ф	-11.031
▁nitre	-11.0312
রি	-11.0312
rer	-11.0313
▁Ð	-11.0315
▁Peter	-11.0317
ľa	-11.0317
▁hii	-11.0319
▁kū	-11.032
▁yuan	-11.032
▁tag	-11.0323
গ	-11.0323
aho	-11.0325
▁basi	-11.0326
▁​​	-11.0327
як	-11.0328
▁இ	-11.033
​​​​​​​​​​​​​​​​	-11.0332
lje	-11.0333
َ	-11.0336
bey	-11.0338
tzi	-11.0339
inte	-11.0339
ு	-11.0339
ਦ	-11.0341
ır	-11.0342
ሮ	-11.0343
▁pari	-11.0343
سي	-11.0346
▁kre	-11.0348
ວ່າ	-11.0353
▁ska	-11.0355
▁ime	-11.0356
inen	-11.0358
▁pel	-11.0358
▁cui	-11.0358
▁Thu	-11.0359
ដែល	-11.0361
vie	-11.0361
ᕐ	-11.0362
ão	-11.0363
лыкъ	-11.0363
▁sian	-11.0365
ndé	-11.0365
enna	-11.0368
▁molo	-11.0369
ence	-11.0369
都	-11.0374
▁Bre	-11.0374
гъу	-11.0374
▁tiko	-11.0376
ᓄᑦ	-11.0376
tza	-11.0379
ndar	-11.0379
▁vis	-11.038
god	-11.038
▁طور	-11.0383
end	-11.0385
وت	-11.0387
特	-11.0387
▁meri	-11.0392
gn	-11.0392
▁model	-11.0393
▁ᐃ	-11.0397
zé	-11.0397
▁ই	-11.0398
▁Се	-11.0399
▁ਵਿੱਚ	-11.0401
bira	-11.0403
▁loa	-11.0403
aca	-11.0404
dı	-11.0404
▁Kana	-11.0405
سی	-11.0408
sty	-11.0409
▁cua	-11.0411
ร	-11.0411
▁Windows	-11.0414
шо	-11.0415
тне	-11.0415
fal	-11.0423
යි	-11.0424
jum	-11.0426
▁solo	-11.0426
▁meta	-11.0427
▁umana	-11.0427
▁khua	-11.0428
▁wá	-11.0433
主	-11.0434
▁hotel	-11.0437
цы	-11.0442
lal	-11.0444
лари	-11.0444
ነት	-11.0447
್	-11.0447
▁ओकरा	-11.0449
pul	-11.045
gli	-11.0451
搭	-11.0452
部	-11.0452
▁muk	-11.0454
кин	-11.0455
▁wò	-11.0457
tap	-11.0457
▁Petrus	-11.0457
▁kanye	-11.0457
ُ	-11.0458
▁த	-11.0458
tlh	-11.0462
▁pek	-11.0462
▁kab	-11.0463
osa	-11.0464
▁liv	-11.0465
▁lee	-11.0466
公	-11.0466
ˉ	-11.0466
▁cal	-11.0468
▁mase	-11.0471
▁דער	-11.0472
dje	-11.0472
rdi	-11.0473
▁willa	-11.0474
▁cri	-11.0476
▁Đ	-11.0478
▁કે	-11.048
▁MP	-11.048
vita	-11.0481
▁yong	-11.0481
▁tabo	-11.0484
▁сон	-11.0486
మ	-11.0488
all	-11.0488
▁für	-11.0489
▁tir	-11.0492
▁ñaka	-11.0492
gö	-11.0492
vela	-11.0494
ಲೆ	-11.0495
▁cor	-11.0496
사	-11.0496
cas	-11.0498
▁wor	-11.0498
nî	-11.0499
▁kɔnɔ	-11.0501
sı	-11.0501
Ꮕ	-11.0501
лап	-11.0502
▁lolo	-11.0506
▁moa	-11.0509
aria	-11.0513
▁так	-11.0513
▁September	-11.0514
▁【	-11.0514
▁nispa	-11.0514
risi	-11.0515
▁रहल	-11.0521
èn	-11.0521
ᒪ	-11.0526
▁lima	-11.0529
▁tuah	-11.053
jë	-11.0531
sisi	-11.0533
તા	-11.0538
$	-11.0539
▁tó	-11.054
tive	-11.0544
外	-11.0545
▁wara	-11.0545
▁City	-11.0546
▁tap	-11.0546
▁German	-11.0547
▁кур	-11.0549
▁rom	-11.0553
▁form	-11.0553
bona	-11.0554
oldid	-11.0555
▁December	-11.0556
ᔭ	-11.0556
▁Chu	-11.0557
▁jai	-11.0558
▁না	-11.0559
▁tina	-11.0559
▁sig	-11.0559
▁ж	-11.0559
▁бла	-11.056
ave	-11.056
уна	-11.0562
▁diti	-11.0563
yoo	-11.0563
▁pati	-11.0563
гә	-11.0563
£	-11.0563
▁US	-11.0564
ún	-11.0566
▁fei	-11.0566
▁ndipo	-11.0567
▁sus	-11.0568
دو	-11.0569
▁andro	-11.0571
▁tễ	-11.0571
ដ	-11.0572
▁Mari	-11.0573
▁tej	-11.0574
▁توپ	-11.0577
зо	-11.0578
ୀ	-11.0581
िया	-11.0583
nag	-11.0584
ъёс	-11.0585
vara	-11.0587
dung	-11.0587
អ្នក	-11.0588
▁ур	-11.0589
нынъ	-11.059
дь	-11.059
ρα	-11.0595
Bi	-11.0595
ें	-11.0596
明	-11.0596
▁نڠ	-11.0598
▁ook	-11.0599
▁không	-11.0599
iw	-11.06
edi	-11.0602
▁tut	-11.0602
▁ҳам	-11.0603
▁kuku	-11.0606
▁zum	-11.0608
unda	-11.061
Cyrillic	-11.061
ḥ	-11.0611
▁tā	-11.0612
▁raka	-11.0612
jí	-11.0616
mul	-11.0619
▁bulu	-11.0622
gge	-11.0622
didi	-11.0624
བ་	-11.0624
▁Α	-11.0625
တဖၣ်	-11.0627
▁nɛn	-11.0629
▁Mak	-11.0629
्	-11.0631
▁katika	-11.0632
ҷ	-11.0635
▁tye	-11.0636
rel	-11.0638
rh	-11.064
正	-11.064
सि	-11.064
▁स्व	-11.0643
elle	-11.0644
▁word	-11.0645
▁Ж	-11.0646
▁November	-11.0646
▁tagata	-11.0647
▁ала	-11.0649
▁hian	-11.065
▁February	-11.065
ɑɑ	-11.065
▁شده	-11.0651
▁set	-11.0651
▁için	-11.0651
▁foi	-11.0652
taan	-11.0654
ຊ	-11.0656
▁ɖɩ	-11.0656
▁diba	-11.0656
▁ven	-11.0657
kọ	-11.0657
ラ	-11.0657
jek	-11.0658
ias	-11.0659
уд	-11.066
▁ги	-11.0661
વા	-11.0662
▁bilen	-11.0663
▁halo	-11.0663
！	-11.0664
▁ling	-11.0667
bare	-11.0669
▁jare	-11.067
wong	-11.0671
▁вал	-11.0672
loko	-11.0673
rè	-11.0675
ク	-11.0675
▁athu	-11.0675
▁Nya	-11.0678
▁sú	-11.0682
▁chal	-11.0682
方	-11.0684
ल्या	-11.0684
▁ax	-11.0685
ೋ	-11.0685
▁aval	-11.0686
▁sī	-11.0686
▁کان	-11.0687
ά	-11.0687
ligi	-11.0687
▁Mal	-11.0687
inta	-11.0688
▁akali	-11.0688
▁Ö	-11.0689
▁iā	-11.0689
cca	-11.069
lua	-11.0693
rong	-11.0693
ande	-11.0697
basa	-11.0697
ของ	-11.0699
ထီၣ်	-11.0699
ମ	-11.0699
tip	-11.07
▁pata	-11.0701
▁Sch	-11.0702
▁hogy	-11.0702
▁ngar	-11.0703
▁Ε	-11.0704
▁yina	-11.0704
▁Ale	-11.0706
ən	-11.0707
▁Ex	-11.071
▁Jéhovah	-11.0711
ffe	-11.0711
fana	-11.0712
▁буго	-11.0712
ць	-11.0712
)(	-11.0713
▁аш	-11.0716
bá	-11.0717
?»	-11.0717
chik	-11.0719
▁programa	-11.0719
▁iš	-11.0719
గ	-11.072
▁сай	-11.0721
▁ਲਈ	-11.0725
لى	-11.0726
▁بو	-11.0727
▁kub	-11.0727
▁wia	-11.0729
गी	-11.073
▁bod	-11.0731
ာ	-11.0731
vers	-11.0731
ா	-11.0735
tab	-11.0736
ath	-11.0738
▁nina	-11.0739
них	-11.074
▁siagang	-11.074
rán	-11.0743
▁Puang	-11.0744
ziun	-11.0744
▁aus	-11.0745
▁Timoteo	-11.0746
iem	-11.0747
enge	-11.0751
idad	-11.0751
ların	-11.0751
号	-11.0756
▁Jadi	-11.0758
kada	-11.0758
ܦ	-11.0758
kila	-11.076
▁loto	-11.0761
эй	-11.0762
▁Sursĩ	-11.0763
▁nla	-11.0764
اي	-11.0764
▁jí	-11.0764
niki	-11.0765
▁ipak	-11.0766
▁nws	-11.0767
▁Ра	-11.0768
ūs	-11.077
▁fara	-11.0771
▁kole	-11.0772
▁dil	-11.0773
▁Ту	-11.0775
▁aboro	-11.0777
β	-11.0778
τι	-11.0779
▁English	-11.0779
▁sii	-11.078
ᑭ	-11.0781
三	-11.0782
˜	-11.0782
ܫ	-11.0783
gaw	-11.0784
▁Pita	-11.0786
▁→	-11.0786
▁Му	-11.0786
▁jɛ	-11.0787
....	-11.0787
▁yom	-11.0787
▁수	-11.0788
panga	-11.0788
syn	-11.0788
ຄວາມ	-11.0789
ਟ	-11.0792
وان	-11.0793
▁შე	-11.0795
▁các	-11.0796
bene	-11.0796
anni	-11.0798
‚¬	-11.0802
kiya	-11.0802
tl	-11.0803
бер	-11.0803
tif	-11.0804
▁tare	-11.0805
▁sug	-11.0805
here	-11.0806
▁ເຍີຍ	-11.0808
市	-11.0809
laya	-11.0811
▁wow	-11.0812
وس	-11.0813
▁wee	-11.0819
rg	-11.082
vua	-11.082
bed	-11.082
▁ק	-11.0825
▁diye	-11.0828
ώ	-11.0828
▁birin	-11.0829
▁sistema	-11.0834
▁Ur	-11.0835
▁woko	-11.0836
▁noma	-11.0837
вр	-11.0838
▁ning	-11.0838
sas	-11.0841
േ	-11.0844
▁رو	-11.0844
▁dupwa	-11.0846
ву	-11.085
▁star	-11.0851
▁ಪ	-11.0853
was	-11.0856
limu	-11.0859
▁táq	-11.0859
▁musi	-11.086
ندا	-11.086
▁yes	-11.086
െ	-11.0861
pag	-11.0862
biti	-11.0863
નો	-11.0864
▁nika	-11.0864
vid	-11.0865
чин	-11.0866
+.	-11.0866
rı	-11.0866
ί	-11.0866
ೇ	-11.0869
▁pikeun	-11.0869
Ju	-11.0869
than	-11.0869
▁buk	-11.0869
▁wawu	-11.0871
▁آهن	-11.0871
▁ਕਿ	-11.0873
rata	-11.0875
▁jina	-11.0876
▁یہ	-11.0878
▁Tur	-11.0887
lich	-11.0888
▁tỡ	-11.0895
eedda	-11.0899
പ	-11.09
ӗ	-11.0905
▁što	-11.0906
▁Sun	-11.0906
量	-11.0906
វ	-11.0907
rua	-11.0908
▁कुछ	-11.0908
▁July	-11.0909
ژ	-11.0909
ӕ	-11.0909
ဖိ	-11.091
pui	-11.091
ܓ	-11.0911
▁jih	-11.0914
▁नयँ	-11.0914
wm	-11.0914
▁nara	-11.0914
рг	-11.0914
ად	-11.0915
▁pran	-11.0915
ده	-11.0915
▁sikandin	-11.0917
fika	-11.0918
eko	-11.0919
тир	-11.0919
▁Tri	-11.092
▁were	-11.0921
тары	-11.0921
tami	-11.0923
şa	-11.0923
▁bathroom	-11.0923
мэ	-11.0934
▁xch	-11.0939
▁də	-11.0939
▁נ	-11.0939
▁ayns	-11.0941
दि	-11.0942
▁vé	-11.0942
دان	-11.0945
▁È	-11.0946
อ	-11.0947
ɨ́	-11.0948
▁tuntang	-11.0949
▁nyen	-11.0949
▁gai	-11.0951
क्‍	-11.0951
▁dika	-11.0956
▁hoo	-11.0956
သး	-11.0956
खा	-11.0956
▁ary	-11.0957
▁ud	-11.096
cz	-11.0961
yè	-11.0962
ира	-11.0963
时	-11.0965
ígíí	-11.0966
▁sua	-11.0967
ain	-11.0967
ડ	-11.0968
▁որ	-11.0969
▁tawo	-11.097
▁José	-11.097
▁mwana	-11.0971
–´	-11.0971
▁hodi	-11.0971
▁ו	-11.0973
מ	-11.0975
▁gwau	-11.0975
ܡ	-11.0975
▁Tá	-11.0976
ၼၼ်ႉ	-11.0977
▁نہیں	-11.0981
▁duma	-11.0981
̱n	-11.0981
▁makan	-11.0987
ppu	-11.0988
ял	-11.0988
yong	-11.0988
▁yeb	-11.0989
▁kɛ́	-11.0991
ните	-11.0992
▁ко	-11.0992
ната	-11.0993
ದ್	-11.0993
▁lɔ	-11.0994
ពី	-11.0997
▁sabab	-11.0997
yet	-11.0998
▁được	-11.1001
او	-11.1001
τε	-11.1002
kó	-11.1002
▁wane	-11.1003
▁fee	-11.1004
uman	-11.1006
eda	-11.1007
tane	-11.1008
પ	-11.1009
▁sp	-11.1011
ου	-11.1011
аа	-11.1012
nic	-11.1014
▁ruh	-11.1015
▁Π	-11.1019
ğa	-11.102
ура	-11.1021
▁ଅ	-11.1023
▁mbei	-11.1024
ད་	-11.1024
ను	-11.1024
tei	-11.1027
!!	-11.1028
rɔ	-11.1029
rami	-11.1031
▁kah	-11.1031
▁caj	-11.1032
оз	-11.1032
美	-11.1033
▁баш	-11.1033
ព	-11.1035
sip	-11.1035
ဘ	-11.1036
▁wakwe	-11.1038
ыг	-11.1039
ۍ	-11.1039
▁sika	-11.104
ታት	-11.1041
ؤ	-11.1042
ија	-11.1043
▁Ме	-11.1044
想	-11.1047
最	-11.1048
▁batho	-11.1049
▁York	-11.105
Ô	-11.1051
▁koje	-11.1053
ус	-11.1054
▁המ	-11.1054
▁banyak	-11.1055
fwa	-11.1057
Yu	-11.106
লা	-11.106
▁ore	-11.1061
రి	-11.1063
▁bre	-11.1063
▁α	-11.1064
你	-11.1064
▁să	-11.1065
▁ngam	-11.1067
алт	-11.1068
▁male	-11.1068
য়	-11.1069
▁yg	-11.1069
▁cat	-11.107
▁panga	-11.107
▁ус	-11.1071
▁ле	-11.1072
▁Papa	-11.1072
▁tih	-11.1073
▁maan	-11.1073
▁sos	-11.1074
bula	-11.1075
وي	-11.1075
▁guu	-11.1076
دٗ	-11.1076
利	-11.1076
khulu	-11.1079
▁Rom	-11.108
ité	-11.108
तो	-11.1081
▁nii	-11.1082
▁ahụ	-11.1082
▁גע	-11.1082
یم	-11.1083
▁god	-11.1084
त्	-11.1085
urban	-11.1085
▁omo	-11.1087
ம	-11.1087
▁घर	-11.1088
▁cul	-11.1088
ады	-11.1088
དུ་	-11.1089
▁spa	-11.1092
aŋ	-11.1094
▁muka	-11.1098
ကြ	-11.1099
ប្រ	-11.1101
uan	-11.1102
ष	-11.1102
▁shin	-11.1103
▁èk	-11.1104
▁दा	-11.1105
يو	-11.1107
bl	-11.1109
гі	-11.1111
▁mur	-11.1112
▁आन	-11.1113
▁करे	-11.1114
▁سره	-11.1114
▁साथ	-11.1114
ación	-11.1117
▁iyi	-11.1118
▁futhi	-11.1119
▁hich	-11.112
▁yil	-11.1122
по	-11.1126
▁jump	-11.1127
hor	-11.1128
▁Amerika	-11.113
▁kulu	-11.1131
ე	-11.1132
али	-11.1133
▁eiloa	-11.1133
▁mato	-11.1135
nima	-11.1135
នៅ	-11.1143
▁σε	-11.1144
▁sistem	-11.1145
▁dunia	-11.1145
ມີ	-11.1147
ां	-11.1147
Co	-11.1148
▁эт	-11.1148
▁hla	-11.1149
化	-11.1149
ларга	-11.115
▁ਅ	-11.115
手	-11.115
▁tiempo	-11.1151
gong	-11.1155
▁سي	-11.1156
▁ń	-11.116
cik	-11.116
▁lya	-11.1161
nchi	-11.1161
▁kane	-11.1163
сӧ	-11.1163
▁байна	-11.1165
ဆ	-11.1168
ongo	-11.1169
dau	-11.117
mona	-11.117
▁sega	-11.1171
▁dɛ	-11.1172
udu	-11.1174
ful	-11.1174
rī	-11.1176
▁Kom	-11.1177
кар	-11.1178
рат	-11.1181
▁tâng	-11.1181
მ	-11.1185
ⵢ	-11.1186
рам	-11.1186
ꞌu	-11.1186
pɨ	-11.1187
▁zheng	-11.1188
▁şi	-11.1191
uva	-11.1191
▁let	-11.1192
▁Gra	-11.1193
Õ	-11.1194
نے	-11.1197
▁pentru	-11.1201
Hi	-11.1201
▁naxan	-11.1203
▁itech	-11.1204
▁badi	-11.1204
▁sini	-11.1205
▁kiri	-11.1205
▁problem	-11.1205
ទ	-11.1207
▁ⵜⴰ	-11.1209
▁Mun	-11.1209
▁problema	-11.121
▁eli	-11.1212
nten	-11.1212
▁neh	-11.1213
suku	-11.1214
▁meng	-11.1215
▁cä	-11.1217
tio	-11.1217
▁phe	-11.1218
장	-11.122
▁alo	-11.1225
ći	-11.1226
த	-11.1226
ꨳ	-11.1227
▁پا	-11.1228
▁utia	-11.1229
▁famili	-11.1229
▁laju	-11.123
нең	-11.1232
ella	-11.1232
უ	-11.1234
ి	-11.1235
▁tui	-11.1236
ര്‍	-11.1236
▁Anti	-11.1236
▁chhe	-11.1239
kazi	-11.1239
ް	-11.124
дән	-11.1241
▁ebeno	-11.1242
eyo	-11.1243
▁annan	-11.1244
qar	-11.1245
▁mi̱	-11.1245
▁देख	-11.1246
▁kɛnɛ	-11.1247
拉	-11.1247
gus	-11.125
▁së	-11.1252
Fa	-11.1252
▁liu	-11.1252
く	-11.1253
мон	-11.1255
త	-11.1256
೦	-11.1257
▁vos	-11.1259
▁lin	-11.1259
ప	-11.1262
гд	-11.1266
toto	-11.1267
▁comme	-11.1267
wini	-11.1268
ປ	-11.1269
▁yâ	-11.1269
ير	-11.127
igo	-11.1271
nä	-11.1274
naan	-11.1274
▁ngkai	-11.1275
▁tech	-11.1275
lk	-11.1276
ەی	-11.1276
ဥ	-11.1277
jom	-11.1277
▁fre	-11.1278
laki	-11.1278
osh	-11.128
ు	-11.128
лет	-11.1281
▁адам	-11.1283
lih	-11.1285
jas	-11.1287
▁putar	-11.1288
lac	-11.1289
anza	-11.1291
nggo	-11.1292
▁ම	-11.1292
▁bes	-11.1294
rú	-11.1294
Ye	-11.1295
wei	-11.1297
▁hani	-11.1298
▁fit	-11.1304
▁yacha	-11.1304
▁ли	-11.1306
cor	-11.1308
dho	-11.1311
led	-11.1314
▁रो	-11.1318
▁bed	-11.1318
eti	-11.1318
▁Pag	-11.1324
ಟ್	-11.1324
▁τὸν	-11.1326
gbo	-11.1327
শ	-11.1327
▁tij	-11.1328
hondo	-11.1329
▁fri	-11.1329
▁iza	-11.133
ада	-11.1333
▁ܐ	-11.1334
▁uya	-11.1334
▁Hindi	-11.1335
▁Mae	-11.1336
▁bli	-11.1337
▁Afrika	-11.134
▁wé	-11.1342
tela	-11.1345
▁Kodi	-11.1346
yň	-11.1348
qq	-11.1349
▁haga	-11.1349
ει	-11.135
მა	-11.1351
▁moni	-11.1351
▁phi	-11.1352
ming	-11.1352
ستان	-11.1354
▁sthn	-11.1355
▁هر	-11.1357
ၼႆႉ	-11.1358
▁Ка	-11.1358
▁wel	-11.1359
▁suku	-11.1359
İ	-11.1361
kut	-11.1364
ར	-11.1364
▁Taita	-11.1364
▁ree	-11.1365
▁हमरा	-11.1367
▁ܘ	-11.1367
lara	-11.1368
Ꮑ	-11.1369
▁Batak	-11.1369
▁€	-11.1371
▁بن	-11.1372
▁Anda	-11.1373
▁déi	-11.1374
▁მ	-11.1377
ár	-11.1378
ˆ˜	-11.1381
▁lagu	-11.1383
saba	-11.1383
▁uwa	-11.1384
тэй	-11.1384
期	-11.1387
▁bhiq	-11.1388
bila	-11.139
▁ɑ	-11.139
uel	-11.1392
▁hum	-11.1392
स्	-11.1393
эщ	-11.1394
çi	-11.1397
▁Leza	-11.1397
sili	-11.1397
uko	-11.1399
▁yali	-11.14
▁maso	-11.1401
lɔ	-11.1401
ٲ	-11.1406
▁Ан	-11.1409
▁गु	-11.141
▁jî	-11.1411
ူ	-11.1413
kuwa	-11.1414
▁गा	-11.1414
laa	-11.1415
▁Ou	-11.1415
eth	-11.1417
يد	-11.1418
¾	-11.1418
▁how	-11.1419
کن	-11.1421
longa	-11.1423
▁Ни	-11.1426
▁muli	-11.1426
▁nini	-11.1428
bij	-11.1429
ül	-11.1429
wè	-11.1432
▁jk	-11.1432
▁Eva	-11.1432
▁dra	-11.1433
nou	-11.1434
▁sija	-11.1434
▁Internet	-11.1435
体	-11.1436
ሚ	-11.1437
▁tuj	-11.1437
मान	-11.1438
▁ئەو	-11.1438
▁kame	-11.1439
▁चि	-11.1439
▁tahun	-11.144
▁epwe	-11.144
▁anan	-11.144
▁ov	-11.1441
▁Uku	-11.1442
▁nomo	-11.1445
▁એ	-11.1445
ལ	-11.1445
ibo	-11.1447
кә	-11.1449
▁zna	-11.1451
Al	-11.1452
▁Tam	-11.1453
▁uas	-11.1454
emu	-11.1455
mol	-11.1456
▁yena	-11.1456
▁Bondyé	-11.1456
▁עס	-11.1457
▁start	-11.146
ыз	-11.1461
▁godine	-11.1461
▁chai	-11.1465
¦¬	-11.1467
రు	-11.1467
▁बाद	-11.1468
▁fuu	-11.1469
ါ	-11.1471
ntang	-11.1472
ů	-11.1472
ଳ	-11.1474
cije	-11.1474
ía	-11.1474
ін	-11.1474
▁wea	-11.1475
atik	-11.1476
kono	-11.1476
kuba	-11.1478
▁final	-11.1478
ging	-11.1479
▁ils	-11.148
paq	-11.1481
▁לה	-11.1484
dere	-11.1484
▁kudu	-11.1485
▁masu	-11.1486
had	-11.1486
▁Ag	-11.1487
▁एगो	-11.1487
▁sheng	-11.1488
бай	-11.149
jee	-11.1494
ving	-11.1495
▁сар	-11.1496
ного	-11.1498
bata	-11.1499
hou	-11.1503
misa	-11.1503
▁ruk	-11.1505
န့ၣ်လီၤ	-11.1505
von	-11.1506
▁ebo	-11.1507
یر	-11.1508
▁kiki	-11.1509
ᔪ	-11.1511
sser	-11.1512
oplal	-11.1514
▁או	-11.1516
▁Mandarin	-11.1516
vol	-11.1516
kaya	-11.1517
տ	-11.1518
ед	-11.1518
▁amun	-11.1518
lm	-11.1521
kah	-11.1522
Mateo	-11.1523
نس	-11.1523
▁ил	-11.1524
kini	-11.1525
ᐅ	-11.1526
त्र	-11.1527
tú	-11.1527
▁ipi	-11.1528
ি	-11.1533
る	-11.1533
හ	-11.1534
gwe	-11.1537
duk	-11.1537
rov	-11.154
មិន	-11.1542
所	-11.1543
របស់	-11.1543
▁uga	-11.1546
▁До	-11.1547
ɛlɛ	-11.1548
▁Τ	-11.155
▁Tar	-11.1551
aye	-11.1552
лат	-11.1552
miya	-11.1553
odi	-11.1554
در	-11.1554
▁Ts	-11.1555
rii	-11.1555
▁bô	-11.1556
ກັບ	-11.1556
ամ	-11.1556
issa	-11.1558
ىن	-11.1558
▁pasal	-11.1559
▁wol	-11.1561
даг	-11.1561
▁ሓ	-11.1561
▁guru	-11.1561
▁auf	-11.1562
▁ਹਨ	-11.1563
baba	-11.1563
ват	-11.1564
▁hak	-11.1564
▁школа	-11.1564
▁už	-11.1566
▁श	-11.1567
ಡಿ	-11.1568
▁kang	-11.157
▁boleh	-11.1574
▁मि	-11.1575
ப்	-11.1579
▁taj	-11.1581
Ꮣ	-11.1581
син	-11.1582
▁може	-11.1583
▁rag	-11.1584
ӹн	-11.1584
▁ly	-11.1585
iste	-11.1585
เป็น	-11.1589
یں	-11.1591
Ꭽ	-11.1592
▁ⴰⵙ	-11.1593
▁ବି	-11.1593
▁दि	-11.1594
▁Mose	-11.1596
▁mahmah	-11.1596
▁ಉ	-11.1598
hiya	-11.16
дж	-11.1601
Ho	-11.1604
▁ਇਸ	-11.1604
▁mora	-11.1606
▁balan	-11.1607
များ	-11.1607
通	-11.1608
ਬ	-11.161
▁taem	-11.1611
him	-11.1611
▁Би	-11.1612
▁Previous	-11.1614
ить	-11.1616
ance	-11.1617
tigi	-11.1618
▁kũ	-11.1618
ті	-11.1619
▁mano	-11.1619
ވާ	-11.1621
▁пи	-11.1621
▁ه	-11.1622
▁hewa	-11.1623
▁ahu	-11.1623
▁Ü	-11.1625
▁ble	-11.1626
▁aho	-11.1627
há	-11.1629
¶	-11.1631
uza	-11.1634
于	-11.1635
tero	-11.1636
▁now	-11.1642
landa	-11.1643
▁бук	-11.1645
meni	-11.1647
тал	-11.1647
̍k	-11.1648
vá	-11.1649
нов	-11.1649
▁Tua	-11.165
bis	-11.1651
▁jaau	-11.1653
▁तक	-11.1656
ege	-11.1658
▁noku	-11.1659
▁Bra	-11.1659
▁noch	-11.166
ଣ	-11.1661
▁від	-11.1662
▁NI	-11.1663
भ	-11.1664
▁pà	-11.167
▁İ	-11.167
▁nta	-11.1671
▁Kai	-11.1671
▁gir	-11.1673
ᓗ	-11.1673
▁ዘ	-11.1675
▁хал	-11.1676
یاں	-11.1676
pele	-11.1677
liki	-11.1677
▁%	-11.1677
ӧн	-11.1679
ngisa	-11.168
ныҥ	-11.168
▁iku	-11.1683
▁sinn	-11.1684
▁kone	-11.1684
▁yad	-11.1686
▁ङा	-11.1688
▁είναι	-11.1691
▁gant	-11.1691
▁chik	-11.1691
ႁ	-11.1692
gri	-11.1692
ස්	-11.1692
▁eru	-11.1692
▁खा	-11.1695
аў	-11.1696
య	-11.1696
▁هي	-11.1699
▁TA	-11.1699
tü	-11.1699
ून	-11.17
oz	-11.17
▁kwo	-11.1701
▁hand	-11.1702
کار	-11.1704
▁pagka	-11.1704
▁خو	-11.1705
▁pom	-11.1705
ruk	-11.1706
▁breast	-11.1707
▁gabe	-11.171
▁fii	-11.1713
masi	-11.1713
ив	-11.1714
¿	-11.1714
ंग	-11.1715
ե	-11.1716
▁gaa	-11.1716
▁leo	-11.1719
▁kury	-11.1719
▁haba	-11.172
डी	-11.1722
▁prima	-11.1724
+,	-11.1725
ары	-11.1726
▁rasa	-11.1727
koj	-11.1727
▁кыл	-11.1728
رت	-11.1728
▁له‌	-11.1728
лд	-11.1729
და	-11.1732
лыг	-11.1732
▁ça	-11.1733
▁oleh	-11.1734
▁King	-11.1735
▁kee	-11.1735
▁рас	-11.1739
wani	-11.174
ени	-11.1741
lib	-11.1743
▁ತ	-11.1745
▁Yiang	-11.1745
▁ये	-11.1746
▁peng	-11.1747
mad	-11.1748
شت	-11.1748
▁دان	-11.175
চ	-11.175
▁dadi	-11.1751
对	-11.1753
▁sasa	-11.1756
כ	-11.1757
▁доно	-11.1758
bek	-11.1758
▁тя	-11.1759
▁Nam	-11.1759
▁suu	-11.176
▁laik	-11.1761
می	-11.1762
ⵎ	-11.1763
▁ise	-11.1764
▁ahpw	-11.1765
cabe	-11.1768
▁ക	-11.177
▁inc	-11.177
ni̱	-11.1771
ien	-11.1772
▁Mba	-11.1775
ကျ	-11.1775
▁dya	-11.1775
▁Pai	-11.1776
▁Namibia	-11.1777
rita	-11.1778
rsa	-11.1779
лени	-11.178
lil	-11.1781
స్	-11.1782
œì	-11.1783
က်	-11.1783
ସ	-11.1785
ché	-11.1785
▁fasi	-11.1785
bí	-11.1787
▁Де	-11.1788
pes	-11.1789
ñi	-11.1789
▁л	-11.179
▁mela	-11.1791
▁ଆ	-11.1791
▁हि	-11.1792
▁Ger	-11.1793
ago	-11.1795
พ	-11.1795
ados	-11.1795
নে	-11.1796
▁YA	-11.1799
▁lej	-11.18
▁gro	-11.18
位	-11.1801
▁peri	-11.1803
ائي	-11.1803
▁jei	-11.1805
▁त्या	-11.1805
▁nopo	-11.1807
▁Mwa	-11.1807
tr	-11.1808
▁გა	-11.1809
▁omwe	-11.181
去	-11.1811
ທ	-11.1812
chal	-11.1812
turi	-11.1813
ries	-11.1813
hom	-11.1814
▁sampeyan	-11.1815
ᑖ	-11.1817
▁Па	-11.1817
pac	-11.1818
▁аст	-11.1819
▁nyɛ	-11.182
usu	-11.1824
fri	-11.1826
▁тер	-11.1828
мер	-11.1828
▁kundi	-11.1828
▁ᐊᒻᒪᓗ	-11.183
ܪ	-11.1831
▁Aria	-11.1833
▁made	-11.1835
wikipedia	-11.1836
kle	-11.1836
kisi	-11.1837
gle	-11.1839
hr	-11.184
Ö	-11.184
▁Pidgin	-11.184
▁Galilea	-11.1841
ੋ	-11.1842
▁pipul	-11.1842
》	-11.1843
▁dugu	-11.1844
oba	-11.1844
▁Naa	-11.1844
lea	-11.1846
▁kari	-11.1846
ului	-11.1849
ының	-11.185
ນີ້	-11.1851
ije	-11.1852
bhu	-11.1852
▁gre	-11.1853
▁আৰু	-11.1854
•„	-11.1855
▁semua	-11.1856
ᔅ	-11.1856
ጣ	-11.1856
TA	-11.1857
ɨm	-11.1859
юн	-11.1861
tiki	-11.1861
▁waya	-11.1866
▁jay	-11.1866
マ	-11.1867
أ	-11.1867
▁ghe	-11.1867
еп	-11.1869
▁wer	-11.1869
يه	-11.187
▁Gen	-11.1872
▁ति	-11.1872
斯	-11.1872
▁lom	-11.1872
▁bis	-11.1876
▁yr	-11.1876
nym	-11.1877
yor	-11.1878
лам	-11.1881
▁алып	-11.1881
▁sín	-11.1881
~	-11.1882
lut	-11.1883
pek	-11.1885
Ꭺ	-11.1885
▁wè	-11.1885
vir	-11.1889
ɛ́	-11.1889
▁Dis	-11.1891
ishi	-11.1893
۲	-11.1895
▁ym	-11.1895
可以	-11.1896
▁afi	-11.1901
相	-11.1902
▁`	-11.1904
▁Yehofa	-11.1904
ວ	-11.1904
▁ප	-11.1905
▁थे	-11.1906
▁ure	-11.1906
▁onye	-11.1906
аны	-11.1911
dır	-11.1912
▁Ham	-11.1914
ell	-11.1915
▁ат	-11.1916
pel	-11.1916
▁ugu	-11.1916
ाय	-11.1917
wy	-11.192
▁ⵜⴰⵏ	-11.1921
nso	-11.1921
▁איר	-11.1922
▁sikan	-11.1922
▁kw	-11.1923
后	-11.1924
▁Ин	-11.1924
▁yer	-11.1924
▁Gar	-11.1929
aran	-11.1931
▁maba	-11.1932
zha	-11.1934
rna	-11.1934
▁गेल	-11.1934
မႃး	-11.1937
گە	-11.1938
tiva	-11.1938
ihi	-11.1938
▁vaj	-11.194
▁free	-11.1941
ኛ	-11.1942
์	-11.1945
▁ав	-11.1946
vn	-11.1946
ዎ	-11.1946
▁Pas	-11.1947
Ꮃ	-11.1949
▁danu	-11.1949
▁Yeova	-11.1951
্য	-11.1952
▁sap	-11.1952
now	-11.1955
▁अर	-11.1956
▁kwin	-11.1957
▁waku	-11.1959
sá	-11.1962
▁pono	-11.1962
▁tanalo	-11.1964
▁Em	-11.1967
▁Kha	-11.1967
nej	-11.1969
▁diak	-11.1969
▁tema	-11.197
▁ആ	-11.197
anak	-11.1971
ך	-11.1972
ප	-11.1972
tutu	-11.1973
rural	-11.1973
णा	-11.1974
▁gagwe	-11.1975
▁eti	-11.1976
epe	-11.1979
IS	-11.198
lor	-11.1982
ὰ	-11.1985
Jo	-11.1986
omi	-11.1987
ies	-11.1989
kwi	-11.199
уы	-11.1992
▁ⵉⵙ	-11.1993
▁gwe	-11.1993
पी	-11.1994
hina	-11.1994
दी	-11.1996
等	-11.1998
▁үз	-11.1998
▁tuꞌ	-11.1999
ати	-11.2
сене	-11.2
▁nji	-11.2001
▁anma	-11.2003
ông	-11.2008
дал	-11.2008
vā	-11.2009
▁мин	-11.2009
▁badan	-11.201
ॉ	-11.2012
▁Ser	-11.2014
▁n̄kpọ	-11.2014
ତ	-11.2016
▁klo	-11.2022
▁gün	-11.2022
▁sale	-11.2022
​​	-11.2022
stvo	-11.2022
▁хъ	-11.2022
kaa	-11.2024
ଙ୍କ	-11.2026
hau	-11.2028
▁Job	-11.2028
char	-11.2028
▁ple	-11.2029
woo	-11.2031
▁yumi	-11.2034
sma	-11.2034
ario	-11.2035
པ	-11.2036
gol	-11.2038
▁sì	-11.2038
▁ⵓ	-11.2038
▁mete	-11.2039
▁Video	-11.2039
▁pee	-11.204
お	-11.204
fun	-11.204
фт	-11.2041
▁गइल	-11.2041
kpɔ	-11.2042
buka	-11.2043
تي	-11.2044
▁pɨ	-11.2045
▁http	-11.2046
▁ప	-11.2047
ட	-11.2049
▁ಈ	-11.2052
▁marang	-11.2053
▁ओकर	-11.2055
▁nuo	-11.2055
▁mereka	-11.2055
▁trong	-11.2056
▁pris	-11.2057
▁vers	-11.2059
▁here	-11.2059
ող	-11.206
▁fey	-11.206
▁sor	-11.2061
▁tat	-11.2064
▁https	-11.2065
ᑯ	-11.2066
уш	-11.2066
avi	-11.2068
▁pì	-11.2069
▁hee	-11.207
ando	-11.2071
ют	-11.2071
▁buka	-11.2072
▁home	-11.2073
▁Мо	-11.2074
▁କ	-11.2074
yob	-11.2075
ї	-11.2076
▁biri	-11.2077
ਗ	-11.2078
گر	-11.208
▁चु	-11.2081
▁Bali	-11.2082
▁Del	-11.2083
ປະ	-11.2085
heid	-11.2085
tili	-11.2085
ný	-11.2086
▁lawm	-11.2087
▁~~~~	-11.2087
▁kwaye	-11.2089
ช	-11.2091
ា	-11.2092
لىق	-11.2092
▁mie	-11.2092
	-11.2098
Ꭶ	-11.2098
▁huo	-11.2099
hwa	-11.2099
▁ஆ	-11.21
▁mike	-11.21
▁gol	-11.2102
gina	-11.2102
är	-11.2103
වා	-11.2104
solo	-11.2107
ໃຫ້	-11.2108
▁kusa	-11.2109
▁oka	-11.211
Я	-11.2111
▁тә	-11.2113
式	-11.2114
▁normal	-11.2114
▁hereva	-11.2115
▁iray	-11.2115
▁Kun	-11.2119
心	-11.2119
לי	-11.212
▁تم	-11.2121
▁Era	-11.2121
全	-11.2123
▁akha	-11.2125
▁uca	-11.2128
▁دې	-11.2129
dwa	-11.213
▁ता	-11.2131
▁Twi	-11.2131
▁mej	-11.2132
▁mbeni	-11.2132
メ	-11.2133
emo	-11.2134
▁loh	-11.2135
▁турар	-11.2136
मन	-11.2136
▁уз	-11.2137
ndang	-11.2138
▁ἔ	-11.2138
▁dak	-11.2139
▁kmo	-11.2142
ubu	-11.2143
▁koy	-11.2144
▁Kam	-11.2144
▁Hem	-11.2144
yik	-11.2147
▁kuya	-11.2147
▁moro	-11.2148
हि	-11.215
▁Isi	-11.215
▁Wu	-11.2152
лю	-11.2152
▁tari	-11.2152
En	-11.2154
Je	-11.2156
enta	-11.2158
વ	-11.216
ᕕ	-11.2161
cm	-11.2161
▁mena	-11.2164
rn	-11.2164
▁Ob	-11.217
▁бас	-11.217
▁meha	-11.217
ӓ	-11.217
ೂ	-11.2172
NA	-11.2172
tud	-11.2174
▁girdi	-11.2176
Ꮢ	-11.2176
šu	-11.2179
ۆ	-11.2179
င်	-11.218
cle	-11.2181
▁anjeun	-11.2182
ውን	-11.2183
▁yá	-11.2184
▁mè	-11.2184
mbwa	-11.2188
西	-11.219
۸	-11.2191
vant	-11.2191
▁nasa	-11.2192
ула	-11.2193
ҙ	-11.2194
▁ducu	-11.2195
ness	-11.2197
▁кал	-11.2199
kadi	-11.2202
):	-11.2202
▁xiao	-11.2203
▁axi	-11.2204
▁liang	-11.2206
yag	-11.2207
▁është	-11.2207
▁susu	-11.2207
ज़	-11.2209
isti	-11.2209
▁nila	-11.2211
zz	-11.2212
▁ہی	-11.2212
পা	-11.2213
▁मेको	-11.2214
̠	-11.2214
ني	-11.2218
▁public	-11.2218
meli	-11.2219
▁ἐν	-11.2221
▁một	-11.2221
▁sidea	-11.2224
stav	-11.2224
▁sex	-11.2225
▁ła	-11.2225
গা	-11.2226
ຈະ	-11.2231
▁article	-11.2232
uze	-11.2233
▁lie	-11.2234
""	-11.2234
ហ	-11.2236
fuɛ	-11.2236
▁agai	-11.2236
▁Myanmar	-11.2237
▁Qui	-11.2238
wari	-11.224
▁rima	-11.2241
▁shou	-11.2241
वी	-11.2242
▁Ү	-11.2243
zvi	-11.2245
ship	-11.2247
▁mundu	-11.2248
raw	-11.2249
rɑ	-11.2249
▁І	-11.225
!»	-11.225
▁hama	-11.2251
▁الإ	-11.2252
▁проект	-11.2253
▁xan	-11.2253
▁piipl	-11.2254
ಗಳ	-11.2254
seng	-11.2255
▁sonde	-11.2255
▁ā	-11.2256
▁מיט	-11.2257
▁imo	-11.2258
̄	-11.2261
cul	-11.2262
zir	-11.2262
اه	-11.2263
yari	-11.2263
ու	-11.2264
▁ක	-11.2264
tuma	-11.2264
▁республика	-11.2265
ɔ́	-11.2265
▁katak	-11.2268
ved	-11.2268
▁want	-11.2268
pl	-11.2269
▁mega	-11.2269
rys	-11.2272
▁প্র	-11.2272
ᑐ	-11.2272
▁thin	-11.2273
▁Atua	-11.2274
▁max	-11.2275
▁खः	-11.2275
▁tī	-11.2277
▁ਨਾਲ	-11.2277
▁Í	-11.2278
▁olgeta	-11.2279
▁તે	-11.2279
iche	-11.2279
лин	-11.2283
▁maki	-11.2285
ዊ	-11.2286
MA	-11.2286
ޫ	-11.2288
▁Od	-11.2289
▁અ	-11.229
اب	-11.2292
▁Que	-11.2292
▁ndzi	-11.2295
▁аб	-11.2295
▁koya	-11.2296
▁bë	-11.2296
¢	-11.2297
ⴻ	-11.2297
ቕ	-11.2298
▁panag	-11.2299
▁ria	-11.2299
▁ninga	-11.23
yama	-11.23
▁sami	-11.2301
▁nà	-11.2302
▁geh	-11.2303
were	-11.2307
▁jer	-11.2307
alfabeto	-11.2309
▁bile	-11.231
ꞌe	-11.231
gere	-11.2311
owa	-11.2312
ಲು	-11.2312
જ	-11.2314
कि	-11.2315
▁ра	-11.2315
ён	-11.2316
ನಾ	-11.2316
▁dun	-11.2318
▁Jehofa	-11.2318
▁оз	-11.2318
ު	-11.232
▁घ	-11.232
naya	-11.232
▁पनि	-11.2322
endo	-11.2323
၀	-11.2326
▁siwo	-11.2327
▁dow	-11.2327
ዛ	-11.2329
mada	-11.2329
ост	-11.2331
▁jara	-11.2331
ץ	-11.2335
bati	-11.2335
iyan	-11.2336
ລ	-11.2337
ܥ	-11.2337
bale	-11.2337
▁sire	-11.2338
▁уч	-11.2339
мә	-11.2341
▁sont	-11.2343
ڈ	-11.2345
▁roto	-11.2346
▁wira	-11.2346
xx	-11.2348
іс	-11.2348
tɨ	-11.2351
ნა	-11.2352
गो	-11.2353
▁aad	-11.2353
▁yao	-11.2353
ctor	-11.2353
▁ለ	-11.2355
▁և	-11.2356
zel	-11.2357
های	-11.2358
▁lenge	-11.2359
▁bri	-11.2359
▁wok	-11.236
▁uj	-11.2364
▁iina	-11.2366
▁blo	-11.2368
▁Gin	-11.2371
▁Dai	-11.2372
puni	-11.2373
▁jaa	-11.2373
▁jeg	-11.2373
保	-11.2376
дон	-11.2376
hanga	-11.2377
▁end	-11.2378
コ	-11.2379
ދު	-11.2379
▁sventa	-11.2381
▁Iwe	-11.2381
ዲ	-11.2382
▁material	-11.2382
ପ	-11.2383
▁פֿאַר	-11.2384
▁nh	-11.2385
▁roma	-11.2386
▁Ş	-11.2392
larda	-11.2394
uar	-11.2395
timo	-11.2395
나	-11.2397
ಲಾ	-11.2398
शी	-11.2398
▁↑	-11.2399
▁biz	-11.2402
gai	-11.2403
ሲ	-11.2404
▁ኢ	-11.2404
:​	-11.2405
▁نە	-11.2406
▁σ	-11.2406
▁bho	-11.2409
▁lenguaje	-11.2409
▁Aa	-11.2409
™	-11.241
ови	-11.241
▁mad	-11.2411
▁nit	-11.2412
rip	-11.2413
ament	-11.2414
▁গ	-11.2414
▁yol	-11.2415
ای	-11.2417
бат	-11.2417
▁sba	-11.2419
▁Sai	-11.242
▁ਆ	-11.2421
▁kà	-11.2422
▁Sur	-11.2425
▁bosong	-11.2426
ийг	-11.2426
кт	-11.2427
▁Σ	-11.2427
▁nahan	-11.2428
lyn	-11.2428
ನೆ	-11.2428
uwa	-11.2428
);	-11.243
▁chim	-11.243
pos	-11.2432
uku	-11.2432
▁Sol	-11.2433
▁മ	-11.2433
▁hã	-11.2434
kte	-11.2437
▁dike	-11.244
▁Dé	-11.244
ود	-11.2441
▁ἀ	-11.2441
▁Sy	-11.2443
▁पु	-11.2443
▁xjal	-11.2444
suk	-11.2445
▁saba	-11.2445
▁भा	-11.2445
▁रहे	-11.2447
सं	-11.2448
gne	-11.245
▁hindi	-11.245
▁land	-11.2458
▁ngal	-11.246
▁Minister	-11.246
opa	-11.2461
▁United	-11.2462
gera	-11.2463
▁sed	-11.2463
form	-11.2464
encia	-11.2465
▁nema	-11.2465
ая	-11.2468
▁jiang	-11.2468
▁Ә	-11.2469
▁gor	-11.247
▁अस	-11.2472
unt	-11.2473
▁apu	-11.2474
கள்	-11.2474
▁тар	-11.2475
▁सरकार	-11.2476
▁cada	-11.2476
▁just	-11.2477
nca	-11.2477
▁kuila	-11.2477
ས	-11.2478
▁mangi	-11.2478
▁ස	-11.248
با	-11.2482
вор	-11.2482
tiko	-11.2482
▁jech	-11.2486
▁gaya	-11.2487
▁بھی	-11.2487
▁Про	-11.2487
▁koh	-11.2488
ów	-11.2488
▁rén	-11.249
enga	-11.2494
णी	-11.2495
nici	-11.2495
chea	-11.2495
diri	-11.2496
gʉ	-11.2496
▁Kara	-11.2498
dí	-11.2499
lda	-11.2499
▁kakhulu	-11.2499
▁ах	-11.2499
кен	-11.2501
mano	-11.2501
▁Abi	-11.2501
اس	-11.2502
rib	-11.2503
ppo	-11.2503
▁Papiamento	-11.2505
གྱི་	-11.2505
▁deh	-11.2505
….	-11.2508
ム	-11.2508
ladi	-11.251
mee	-11.251
▁ado	-11.251
ओ	-11.2511
▁Modimo	-11.2513
▁tias	-11.2517
▁പ	-11.2517
▁fah	-11.2517
▁vya	-11.2518
ठ	-11.2519
▁mod	-11.2519
▁tumen	-11.2519
ળ	-11.2519
lər	-11.2521
做	-11.2522
▁gila	-11.2522
▁gur	-11.2523
leke	-11.2524
ରୁ	-11.2526
▁år	-11.2527
▁ڤر	-11.2531
ቶ	-11.2532
▁oba	-11.2532
▁ſ	-11.2533
وه	-11.2533
ܚ	-11.2534
▁phu	-11.2534
▁Ди	-11.2534
acha	-11.2536
▁doon	-11.2538
▁gaan	-11.254
▁wode	-11.254
▁laba	-11.254
ટ	-11.254
ange	-11.2541
▁mú	-11.2542
▁sapa	-11.2543
эл	-11.2544
▁sco	-11.2544
mua	-11.2546
▁rua	-11.2546
ог	-11.2548
ରା	-11.2549
▁जि	-11.2552
οῦ	-11.2553
▁yari	-11.2553
daw	-11.2554
តែ	-11.2554
▁लिए	-11.2557
ၽ	-11.2559
▁igi	-11.256
ами	-11.256
▁""	-11.256
koa	-11.2565
rez	-11.2565
üm	-11.2566
dən	-11.2569
▁यो	-11.2569
ство	-11.2569
▁fyri	-11.2569
▁bôt	-11.257
▁Tupàn	-11.2573
▁سەر	-11.2574
NT	-11.2575
▁देश	-11.2575
lyq	-11.2575
▁आप	-11.2576
▁pyuo	-11.2578
▁ယ	-11.2581
Hu	-11.2582
pli	-11.2584
یه	-11.2584
ো	-11.2585
▁augwaligo	-11.2586
cü	-11.2587
▁með	-11.2587
▁भिसी	-11.2587
cun	-11.259
▁dad	-11.2591
▁ká	-11.2591
▁Dirava	-11.2593
▁Zezi	-11.2595
՝	-11.2597
സ്	-11.26
▁tanda	-11.26
▁Eng	-11.2601
▁jalan	-11.2602
Nga	-11.2604
▁salah	-11.2604
şı	-11.2605
оф	-11.2607
kaj	-11.2608
ീ	-11.2609
ული	-11.261
▁Mé	-11.2611
biya	-11.2614
▁uit	-11.2615
vale	-11.2616
мек	-11.2619
▁ഇ	-11.262
▁nir	-11.2622
▁beno	-11.2623
siga	-11.2624
stat	-11.2624
ঁ	-11.2625
▁ᐅ	-11.2625
ស្	-11.2626
ใน	-11.2626
တဲ့	-11.2627
▁کیا	-11.2627
ܗ	-11.2628
▁app	-11.2629
▁kora	-11.2631
ikan	-11.2631
▁ño	-11.2632
▁منٛز	-11.2633
▁them	-11.2633
▁cang	-11.2634
ኒ	-11.2636
nding	-11.2636
▁baş	-11.2636
▁প	-11.2638
▁masha	-11.2638
lolo	-11.2639
▁jag	-11.2643
ల్	-11.2644
▁нас	-11.2645
ugh	-11.2645
▁Ꮧ	-11.2646
에서	-11.2647
ose	-11.2648
zet	-11.2649
ዘ	-11.2649
main	-11.265
ře	-11.2651
bro	-11.2652
▁cikin	-11.2652
▁vid	-11.2655
rume	-11.2657
zwe	-11.2658
▁bâ	-11.2658
▁май	-11.2661
▁қа	-11.2661
▁iso	-11.2662
▁với	-11.2662
▁bangsa	-11.2662
އި	-11.2664
देन	-11.2666
ōn	-11.2667
可	-11.2667
raq	-11.2668
▁Heowá	-11.267
▁Dar	-11.267
▁če	-11.2671
▁Ñ	-11.2672
▁foki	-11.2673
▁Sen	-11.2673
į	-11.2674
bätä	-11.2675
▁ⵜⵉ	-11.2675
▁travay	-11.2675
▁tê	-11.2675
sii	-11.2676
▁ද	-11.2676
▁hia	-11.2681
ห	-11.2682
▁Abu	-11.2682
▁само	-11.2683
▁شن	-11.2683
ሃ	-11.2684
miz	-11.2686
asyon	-11.2686
hur	-11.2688
▁ⴰⵏ	-11.2688
οι	-11.269
yā	-11.2693
hile	-11.2694
rga	-11.2694
▁ampa	-11.2696
àng	-11.2697
▁akwa	-11.2698
▁لو	-11.2698
▁Ви	-11.2698
шт	-11.27
▁Tok	-11.2701
tly	-11.2702
▁लेकिन	-11.2702
▁eena	-11.2702
ध	-11.2704
uen	-11.2704
▁ବ	-11.2705
tatu	-11.2705
ʊ	-11.2707
▁रूप	-11.2709
эхэм	-11.2711
ಣ	-11.2711
tsy	-11.2713
sung	-11.2713
sah	-11.2714
▁Ngo	-11.2715
gine	-11.2716
ರಾ	-11.2716
▁loka	-11.2717
år	-11.2717
ать	-11.2718
▁kiwa	-11.2719
स्त	-11.2723
འ	-11.2724
▁그	-11.2724
▁anwo	-11.2725
▁pisi	-11.2726
▁эш	-11.2728
▁dze	-11.2729
ዮ	-11.2729
▁yoku	-11.2729
маш	-11.273
atan	-11.273
rut	-11.273
▁به‌	-11.2731
tema	-11.2731
▁भारत	-11.2735
▁chura	-11.2735
Í	-11.2736
kami	-11.2738
▁uhi	-11.2739
▁жана	-11.274
ები	-11.2741
лов	-11.2743
ked	-11.2744
kole	-11.2744
机	-11.2745
▁ам	-11.2745
ೊ	-11.2747
ܶܐ	-11.2748
型	-11.2748
▁yana	-11.2749
kale	-11.2749
▁mask	-11.2749
zat	-11.275
ेन	-11.2751
ева	-11.2751
hamba	-11.2754
▁real	-11.2756
tshe	-11.2756
道	-11.2756
▁i̱	-11.2757
▁adam	-11.2758
▁معدن	-11.2759
▁ص	-11.276
šo	-11.2762
лей	-11.2762
▁neeg	-11.2762
▁oki	-11.2765
డ	-11.2765
▁ой	-11.2766
ได้	-11.2766
үү	-11.277
▁vara	-11.2772
kura	-11.2773
áƒ	-11.2774
▁що	-11.2774
▁iwe	-11.2776
cam	-11.2776
▁teko	-11.2776
Ga	-11.2777
maw	-11.2778
▁dɔn	-11.2778
ਚ	-11.2781
ode	-11.2781
▁የሚ	-11.2782
▁క	-11.2783
▁~~~~~	-11.2783
hulu	-11.2784
ыв	-11.2785
▁сан	-11.2785
cus	-11.2786
caj	-11.2786
▁जब	-11.2788
▁della	-11.2788
▁ә	-11.279
▁hasta	-11.2791
▁fol	-11.2791
!’	-11.2791
▁talem	-11.2792
カ	-11.2793
▁nɛɛ	-11.2793
èt	-11.2793
бы	-11.2795
▁dza	-11.2796
pulu	-11.2797
tlha	-11.2797
▁SANDWICH	-11.2798
gama	-11.2798
▁esse	-11.2799
色	-11.28
tï	-11.28
yana	-11.28
ꨵ	-11.2801
▁bisi	-11.2801
liwa	-11.2801
▁кы	-11.2801
▁bolo	-11.2802
tys	-11.2803
▁elos	-11.2805
nau	-11.2806
▁agama	-11.2806
▁beste	-11.2807
kanga	-11.2808
▁Av	-11.2808
ミ	-11.2809
▁nyob	-11.2809
ލް	-11.281
▁nanti	-11.281
▁augwali	-11.2812
Ü	-11.2812
qua	-11.2813
▁www	-11.2815
iden	-11.2816
▁Allata	-11.2818
▁sib	-11.2821
▁pula	-11.2825
pela	-11.2826
▁Sesotho	-11.2827
ция	-11.2828
▁йо	-11.2828
ᓴ	-11.2832
▁үчүн	-11.2833
▁run	-11.2834
kab	-11.2834
▁nwere	-11.2835
ሙ	-11.2835
نج	-11.2836
▁swenta	-11.2836
maha	-11.2836
ית	-11.2837
ލާ	-11.2837
▁पि	-11.2837
▁Azerbaijani	-11.2838
▁öz	-11.2838
▁ማ	-11.2839
▁més	-11.2841
әр	-11.2841
▁им	-11.2842
▁rá	-11.2843
ugu	-11.2843
▁پی	-11.2846
▁só	-11.2846
рак	-11.2847
sī	-11.2848
▁tul	-11.2849
▁tuu	-11.285
▁кил	-11.285
▁itah	-11.285
▁luo	-11.2851
tej	-11.2852
hani	-11.2854
▁kyn	-11.2855
voj	-11.2855
▁ahih	-11.2856
▁paling	-11.2856
ġ	-11.2856
▁SA	-11.2856
мс	-11.2857
▁ⵓⵙ	-11.2865
ན	-11.2865
▁пыр	-11.2867
▁Tayta	-11.2871
jik	-11.2871
動	-11.2874
nsi	-11.2876
▁кӧ	-11.2878
ෝ	-11.2878
▁misa	-11.288
java	-11.2881
▁jy	-11.2882
▁uan	-11.2883
ât	-11.2883
Wi	-11.2884
ृ	-11.2885
ыште	-11.2887
▁María	-11.2887
араб	-11.2887
▁Des	-11.2891
ön	-11.2891
▁oan	-11.2891
▁Ó	-11.2892
▁who	-11.2893
ത്	-11.2894
▁niman	-11.2894
▁Эр	-11.2897
ウ	-11.2897
jn	-11.2897
▁President	-11.2897
сон	-11.2898
▁kro	-11.2899
▁nogi	-11.2899
▁тол	-11.2901
langan	-11.2901
开	-11.2902
ไ	-11.2903
▁noa	-11.2904
▁են	-11.2904
▁jel	-11.2905
isse	-11.2906
▁менен	-11.2907
▁bhith	-11.2908
▁bamba	-11.2909
мын	-11.291
қа	-11.291
▁avec	-11.291
مو	-11.291
toro	-11.2911
ɨn	-11.2911
▁montok	-11.2912
▁kera	-11.2912
nse	-11.2912
▁bos	-11.2913
ᕋ	-11.2914
▁تن	-11.2914
dini	-11.2915
uba	-11.2919
▁teuma	-11.2921
kamu	-11.2921
▁njan	-11.2924
נ	-11.2925
▁sut	-11.2927
ৎ	-11.2928
▁Sé	-11.2929
き	-11.2929
▁sikandan	-11.2929
▁στο	-11.2929
ड़	-11.293
инде	-11.2931
▁tsaol	-11.2933
ਿਆ	-11.2933
▁Pulu	-11.2933
ི	-11.2934
▁яз	-11.2934
▁ⵉⵎ	-11.2934
▁kũ	-11.2934
▁yebätä	-11.2934
א	-11.2935
▁mí	-11.2935
教	-11.2938
▁Tre	-11.2938
នឹង	-11.294
▁kuv	-11.2941
▁Sabah	-11.2943
▁bilong	-11.2944
ත	-11.2947
fee	-11.2948
lile	-11.2949
▁Products	-11.295
jei	-11.295
gut	-11.2952
ꞈ-	-11.2952
ера	-11.2952
een	-11.2953
tete	-11.2954
▁उप	-11.2955
▁sth	-11.2956
▁байгаа	-11.2959
▁Во	-11.2962
yil	-11.2966
]]	-11.2967
▁eku	-11.2967
▁lac	-11.2968
iku	-11.2968
تو	-11.2969
▁paw	-11.2971
▁nba	-11.2971
ལས་	-11.2971
▁finn	-11.2971
▁կ	-11.2972
lî	-11.2972
จ	-11.2972
▁Iz	-11.2975
▁عام	-11.2975
fre	-11.2975
▁twi	-11.2976
▁Beta	-11.2977
▁hiki	-11.2979
▁cuma	-11.2979
ondo	-11.2979
แ	-11.298
zwi	-11.2982
stru	-11.2983
nych	-11.2983
ith	-11.2984
▁ew	-11.2984
roma	-11.2987
▁Ẹ	-11.2988
▁lini	-11.2989
ement	-11.2991
lula	-11.2992
▁लोक	-11.2994
zana	-11.2996
▁nuh	-11.2997
▁bulan	-11.2997
koni	-11.2998
▁alt	-11.2998
▁chih	-11.2998
た	-11.2998
▁name	-11.3
bhe	-11.3
▁kann	-11.3
क्ष	-11.3
koro	-11.3001
hil	-11.3001
dade	-11.3001
▁kira	-11.3003
▁тӓ	-11.3007
▁mende	-11.3007
Luka	-11.3008
▁Ва	-11.3009
▁tukuy	-11.3009
wt	-11.3009
▁nibak	-11.301
pwa	-11.3011
inne	-11.3012
▁chupe	-11.3013
jama	-11.3015
▁siku	-11.3015
▁bada	-11.3016
€	-11.3016
tâ	-11.3017
▁турган	-11.3018
▁Ing	-11.3018
लें	-11.3019
enti	-11.3019
dó	-11.302
яв	-11.3021
ches	-11.3022
▁into	-11.3022
▁about	-11.3022
ୟ	-11.3022
▁red	-11.3022
▁Ini	-11.3023
анда	-11.3025
▁Hy	-11.3025
▁vho	-11.3027
▁ताम	-11.3027
кь	-11.3028
out	-11.3029
▁Breast	-11.303
▁ир	-11.3031
▁Sena	-11.3031
▁bank	-11.3032
ፋ	-11.3033
▁आं	-11.3034
▁naya	-11.3034
stin	-11.3034
miayi	-11.3034
ロ	-11.3035
▁बर	-11.3036
جا	-11.3036
ngel	-11.3037
ਹ	-11.3037
▁ты	-11.3038
▁रा	-11.3039
▁Pala	-11.304
▁kwaw	-11.3041
ැ	-11.3044
대	-11.3045
inia	-11.3045
▁бор	-11.3045
▁yek	-11.3046
tions	-11.3047
▁ebete	-11.3047
▁ureuëng	-11.3047
ມາ	-11.3047
▁nó	-11.3048
ings	-11.3049
▁ڪري	-11.305
ыу	-11.305
lina	-11.3051
▁Dioso	-11.3052
ပြီး	-11.3052
▁jari	-11.3053
▁banda	-11.3054
▁husi	-11.3057
▁gak	-11.3059
▁tiang	-11.306
▁wit	-11.3061
vaka	-11.3063
جي	-11.3063
pacha	-11.3065
▁xb	-11.3065
▁age	-11.3065
重	-11.3066
▁Ken	-11.3068
▁yange	-11.3069
▁Ste	-11.3069
ന്‍	-11.307
sele	-11.3071
▁bino	-11.3072
▁pama	-11.3072
า	-11.3072
▁campa	-11.3074
?—	-11.3075
▁Tak	-11.3075
ýar	-11.3076
ၼ	-11.3076
▁baro	-11.3079
berg	-11.3079
شی	-11.308
▁Anak	-11.3081
▁lii	-11.3082
पर	-11.3083
▁yɛn	-11.3083
▁cau	-11.3083
awe	-11.3084
▁amar	-11.3085
eza	-11.3086
▁бул	-11.3086
аар	-11.3086
badi	-11.3088
idu	-11.3088
हे	-11.3088
▁nog	-11.3089
ره	-11.3089
ック	-11.309
▁Sepedi	-11.3091
▁pɩ	-11.3093
pah	-11.3096
▁rad	-11.3097
tsin	-11.3097
katu	-11.3098
i̱	-11.3099
wis	-11.3099
▁Air	-11.31
▁Tai	-11.3101
дик	-11.3101
▁ando	-11.3101
રી	-11.3102
▁मो	-11.3104
▁romo	-11.3104
▁ਤੋਂ	-11.3105
hati	-11.3106
▁Umu	-11.3106
▁că	-11.3108
tulu	-11.311
ሽ	-11.3111
当	-11.3111
odo	-11.3113
མི་	-11.3114
ք	-11.3114
ৈ	-11.3115
▁Kot	-11.3115
ග	-11.3116
▁Lau	-11.3117
kos	-11.3118
inum	-11.3119
▁Шо	-11.312
und	-11.3121
▁Kas	-11.3122
ِنْ	-11.3123
Ц	-11.3123
▁mɔgɔ	-11.3125
▁#####	-11.3126
▁waktu	-11.3128
ator	-11.3131
Ro	-11.3131
▁lwe	-11.3131
▁kinye	-11.3131
tī	-11.3133
▁situ	-11.3134
レ	-11.3135
▁ло	-11.3136
see	-11.3136
▁مر	-11.3137
▁hel	-11.3137
este	-11.3138
hā	-11.3139
▁wake	-11.3139
ਵ	-11.314
wata	-11.3141
▁lɛ́	-11.3144
αν	-11.3144
▁tzij	-11.3144
▁य	-11.3145
▁nong	-11.3146
▁Sto	-11.3146
کو	-11.3146
Ꮵ	-11.3147
▁bilan	-11.3148
iin	-11.3148
▁airson	-11.3148
▁რომ	-11.3149
uro	-11.315
▁Jahowa	-11.315
▁süpüla	-11.315
ో	-11.3151
ေရ	-11.3151
tyn	-11.3153
▁mó	-11.3154
▁kadagiti	-11.3156
▁fam	-11.3157
▁Mata	-11.3158
tene	-11.3162
▁mû	-11.3162
▁Serbian	-11.3163
▁anyi	-11.3165
▁Cre	-11.3165
ىپ	-11.3168
▁Jézi	-11.3168
▁ear	-11.3169
▁ध	-11.3169
▁nyí	-11.3172
▁Indonesia	-11.3172
kili	-11.3173
ää	-11.3173
▁dro	-11.3174
▁maya	-11.3174
Š	-11.3175
▁pagpa	-11.3178
▁mul	-11.3178
нче	-11.3178
▁já	-11.318
▁janah	-11.3182
▁teng	-11.3184
ತಿ	-11.3184
ним	-11.3184
▁page	-11.3186
▁هڪ	-11.3186
तः	-11.3189
ຄ	-11.3191
정	-11.3192
၀ဲ	-11.3193
▁pò	-11.3194
▁leswi	-11.3194
ани	-11.3198
saya	-11.3198
Œë	-11.3199
▁Santo	-11.32
▁kir	-11.3201
တွေ	-11.3202
keng	-11.3203
▁br	-11.3204
Ꮙ	-11.3204
рет	-11.3204
tij	-11.3204
эд	-11.3206
▁gau	-11.3206
▁yaku	-11.3208
��	-11.3209
jt	-11.3209
▁Baa	-11.321
ਰੀ	-11.321
▁hann	-11.3211
▁kula	-11.3212
▁пал	-11.3212
▁tè	-11.3213
ց	-11.3216
xic	-11.3222
器	-11.3223
มา	-11.3224
ŏ	-11.3226
nyụn̄	-11.3226
▁fy	-11.3226
ām	-11.3227
më	-11.3228
▁LA	-11.3231
▁ireo	-11.3232
ٽ	-11.3236
ipe	-11.3236
▁If	-11.3237
▁bone	-11.3237
ⴰⵍ	-11.3237
▁chino	-11.324
▁бил	-11.3241
▁θα	-11.3241
doo	-11.3245
ⵓ	-11.3245
▁luagu	-11.3248
ί	-11.325
▁yanapa	-11.325
ape	-11.325
ⴳ	-11.325
ė	-11.325
lad	-11.3251
siri	-11.3256
Ꮟ	-11.3256
bwe	-11.3257
▁ସେ	-11.3257
ሎ	-11.3258
۵	-11.3259
▁sono	-11.326
luh	-11.326
▁ente	-11.3267
▁Og	-11.3269
▁BA	-11.3271
nio	-11.3271
ዓ	-11.3271
▁ä	-11.3273
۱	-11.3273
ский	-11.3273
We	-11.3274
▁кас	-11.3274
uw	-11.3274
Ꮿ	-11.3275
ća	-11.3277
▁sit	-11.3278
▁пур	-11.328
yol	-11.328
▁World	-11.3281
▁namba	-11.3283
нинъ	-11.3283
▁lala	-11.3284
ës	-11.3284
zzjoni	-11.3285
▁kutu	-11.3287
জি	-11.3287
아	-11.3287
タ	-11.3288
▁nuu	-11.3288
sè	-11.3288
▁пул	-11.329
вет	-11.3291
▁uchun	-11.3291
▁jé	-11.3292
ware	-11.3292
yingo	-11.3293
▁रे	-11.3295
▁bä	-11.3295
һан	-11.3295
⸥	-11.3296
ње	-11.3297
وب	-11.3297
▁hit	-11.3297
▁olan	-11.3298
▁konopu	-11.3299
lako	-11.3299
luka	-11.3299
ome	-11.33
ジ	-11.3301
▁kalau	-11.3305
්	-11.3305
ngana	-11.3306
▁लग	-11.3308
▁یو	-11.3309
cos	-11.3309
▁mong	-11.331
▁rọ	-11.331
tag	-11.3311
▁Zambe	-11.3311
▁maua	-11.3311
emi	-11.3312
▁Jacob	-11.3313
rā	-11.3314
▁Dibata	-11.3314
▁kamu	-11.3314
mag	-11.3317
意	-11.3317
▁wada	-11.3317
▁mbira	-11.3318
▁bagay	-11.3319
比	-11.332
эхэр	-11.3321
بار	-11.3323
Simplified	-11.3324
▁þat	-11.3324
moo	-11.3324
▁haa	-11.3325
▁kuwi	-11.3326
▁कम	-11.3327
ꨀ	-11.3327
mong	-11.3328
▁pëpe	-11.3328
▁kuda	-11.3328
ич	-11.3329
▁kontra	-11.3329
▁Ker	-11.3333
▁nnyịn	-11.3336
gum	-11.3337
რ	-11.334
▁khö	-11.3341
nki	-11.3341
▁vien	-11.3341
зин	-11.3343
খি	-11.3345
lige	-11.3346
▁madi	-11.3347
ᐱ	-11.3347
▁Abasi	-11.3347
pod	-11.3347
▁दो	-11.3348
▁pho	-11.3348
Huan	-11.3349
ці	-11.3349
zor	-11.3351
angi	-11.3352
maq	-11.3352
ି	-11.3353
▁Europa	-11.3354
▁pit	-11.3355
ქ	-11.3356
▁кара	-11.3357
ッ	-11.3357
hod	-11.336
ާ	-11.3362
▁tsha	-11.3363
▁Dir	-11.3363
rish	-11.3364
ဝႃႈ	-11.3364
laryň	-11.3364
ි	-11.3365
nın	-11.3365
▁Iya	-11.3367
▁Tau	-11.3368
▁zen	-11.3368
▁total	-11.3368
工	-11.3369
▁Yekova	-11.337
mentu	-11.3371
▁цо	-11.3372
лас	-11.3373
▁Gun	-11.3373
▁kila	-11.3373
rya	-11.3376
▁जो	-11.3376
sanga	-11.3378
vana	-11.3379
▁база	-11.3381
▁কা	-11.3382
wag	-11.3382
ыб	-11.3383
▁ruwa	-11.3383
ზე	-11.3387
taw	-11.3389
ވެ	-11.3389
▁ega	-11.339
▁iwo	-11.3391
▁vana	-11.3392
▁jareya	-11.3392
ìœ	-11.3393
▁Langue	-11.3393
gé	-11.3393
ಹ	-11.3394
রে	-11.3394
▁Шу	-11.3396
नु	-11.3396
изе	-11.3397
▁leyi	-11.3398
öl	-11.3399
ണ	-11.34
ރާ	-11.34
ые	-11.34
▁todo	-11.3401
▁kēia	-11.3401
▁cih	-11.3402
▁saan	-11.3403
jé	-11.3403
▁आणि	-11.3404
үн	-11.3405
▁baya	-11.3407
▁Су	-11.3407
▁پار	-11.3409
ју	-11.3409
миш	-11.341
▁momo	-11.3411
ూ	-11.3411
apo	-11.3411
▁Christ	-11.3412
▁wale	-11.3412
ranga	-11.3413
ঙ	-11.3413
▁azy	-11.3414
▁kite	-11.3416
▁dam	-11.3416
ngela	-11.3417
ර්	-11.3417
ила	-11.3417
▁haka	-11.3418
▁vari	-11.3419
já	-11.342
шта	-11.342
▁Mang	-11.3424
maga	-11.3425
naj	-11.3426
sih	-11.3427
фи	-11.3427
swe	-11.3428
▁keda	-11.3428
▁pire	-11.343
▁التي	-11.3431
▁ئە	-11.3432
▁mos	-11.3434
সি	-11.3435
គ	-11.3436
sema	-11.3437
▁kutsi	-11.3438
▁نظر	-11.3439
▁کننده	-11.344
fat	-11.3442
▁Bee	-11.3442
ӧс	-11.3443
̨	-11.3443
ril	-11.3447
學	-11.3447
dila	-11.3448
mbre	-11.3448
eq	-11.345
▁oder	-11.3451
▁час	-11.3451
ܙ	-11.3452
▁sorkar	-11.3452
▁же	-11.3454
▁الج	-11.3455
▁ekki	-11.3456
海	-11.3457
▁сол	-11.3458
zio	-11.3458
▁Yave	-11.3459
▁сур	-11.346
են	-11.3461
ээ	-11.3461
▁Are	-11.3463
▁شي	-11.3464
gá	-11.3465
▁मुला	-11.3465
▁gene	-11.3466
fy	-11.3468
▁mabu	-11.3469
▁Nag	-11.3471
rge	-11.3472
той	-11.3475
थि	-11.3478
▁къо	-11.348
ml	-11.3483
▁spesies	-11.3485
▁Ай	-11.3486
гын	-11.3487
▁mesa	-11.3488
▁ит	-11.3489
▁signes	-11.3491
▁lut	-11.3493
▁lidan	-11.3493
▁lê	-11.3494
▁هند	-11.3495
▁کردن	-11.3498
▁tawe	-11.3498
▁Hyang	-11.3499
▁Asia	-11.35
▁ley	-11.3502
▁mem	-11.3502
▁sampai	-11.3504
▁जी	-11.3505
▁oso	-11.3506
▁Kum	-11.3507
▁tẹ	-11.3511
▁τῶν	-11.3511
etan	-11.3512
▁pura	-11.3512
▁koja	-11.3513
▁પણ	-11.3513
kik	-11.3513
‚˜	-11.3514
न्‍	-11.3514
দি	-11.3516
业	-11.3517
▁زنی	-11.3517
ኡ	-11.3519
我們	-11.3519
poro	-11.3519
▁Kini	-11.352
▁dän	-11.352
▁vita	-11.352
▁rang	-11.352
nei	-11.3521
ছে	-11.3522
요	-11.3522
▁ካብ	-11.3523
▁بول	-11.3524
dè	-11.3526
သည်	-11.3527
▁vse	-11.3527
ewe	-11.3528
ją	-11.3529
ám	-11.3529
▁ସ	-11.353
aꞌ	-11.3534
ฟ	-11.3534
elu	-11.3535
ές	-11.3537
▁эки	-11.3539
▁gans	-11.354
▁इस	-11.354
gla	-11.354
元	-11.354
ኑ	-11.3544
yaya	-11.3545
ζ	-11.3546
jö	-11.3546
回	-11.3547
got	-11.3549
wara	-11.3549
▁Diose	-11.3551
▁cay	-11.3552
▁ubak	-11.3553
▁peb	-11.3555
▁hō	-11.3556
mɨ	-11.3557
▁stu	-11.3557
ེ	-11.3558
▁Ram	-11.3559
დი	-11.356
▁usu	-11.3565
gei	-11.3566
▁болуп	-11.3567
▁مس	-11.3567
्यो	-11.3568
ହ	-11.3569
▁fini	-11.3569
▁ਇਹ	-11.357
▁биз	-11.357
Ι	-11.357
▁Mor	-11.357
ец	-11.3573
▁sui	-11.3574
▁Iye	-11.3575
▁kue	-11.3578
иши	-11.3579
▁मंज़	-11.3579
▁sran	-11.358
▁Bon	-11.3581
▁Saa	-11.3581
▁চ	-11.3583
vei	-11.3584
▁Мен	-11.3584
▁vida	-11.3585
▁dini	-11.3585
មួយ	-11.3586
chá	-11.3587
▁bhu	-11.359
ظ	-11.359
raha	-11.359
نه	-11.359
▁قیمت	-11.3591
ım	-11.3592
ران	-11.3597
▁пере	-11.3599
prav	-11.3599
▁ɖé	-11.3599
abe	-11.3599
يس	-11.36
▁Kay	-11.36
▁zòt	-11.3601
ܛ	-11.3602
tian	-11.3604
▁Mr	-11.3605
ċi	-11.3605
tol	-11.3606
Go	-11.3606
tsha	-11.3607
mod	-11.3607
zioni	-11.3607
▁kato	-11.3608
lə	-11.361
asta	-11.3611
更	-11.3613
taga	-11.3613
yele	-11.3613
▁wedi	-11.3613
kota	-11.3615
▁libro	-11.3618
кай	-11.3618
PA	-11.3619
▁pola	-11.362
esa	-11.362
▁fá	-11.362
▁Wikipedia	-11.3622
гъэ	-11.3622
ᒍ	-11.3623
▁puru	-11.3623
▁awi	-11.3626
▁ici	-11.3626
nung	-11.3627
ության	-11.3627
▁high	-11.3627
handa	-11.3627
▁log	-11.3629
▁dins	-11.3629
घ	-11.3632
ಳ	-11.3634
له	-11.3634
▁δ	-11.3634
ئی	-11.3635
▁pakhat	-11.3636
һа	-11.3636
▁awm	-11.3637
▁sabuah	-11.3637
ена	-11.364
动	-11.3641
▁არ	-11.3642
▁MU	-11.3642
үр	-11.3644
▁Tin	-11.3644
row	-11.3644
▁Eri	-11.3645
▁что	-11.3646
很	-11.3648
ܠ	-11.365
▁ڤا	-11.3651
င္း	-11.3651
ன	-11.3652
awai	-11.3652
為	-11.3653
▁Dili	-11.3653
ibe	-11.3655
ந்த	-11.3655
lö	-11.3655
▁há	-11.3655
ནས་	-11.3657
▁Hor	-11.3659
▁کم	-11.366
▁nene	-11.366
▁untu	-11.3662
လဲ	-11.3662
ξ	-11.3666
vez	-11.3669
▁marca	-11.3669
ият	-11.3669
rant	-11.367
▁веле	-11.367
ಟ	-11.3671
▁lẹ	-11.3672
▁Maya	-11.3673
әт	-11.3673
▁plis	-11.3673
omba	-11.3673
山	-11.3677
ৱ	-11.3678
ႉ	-11.3679
sky	-11.368
▁viv	-11.368
▁yuj	-11.3681
dyr	-11.3681
ትን	-11.3682
zim	-11.3682
ага	-11.3682
ès	-11.3682
▁Hiligaynon	-11.3683
န်	-11.3683
▁obi	-11.3683
lini	-11.3684
ади	-11.3684
ringi	-11.3687
▁used	-11.369
ža	-11.3692
́n	-11.3692
kasa	-11.3693
▁wet	-11.3694
τη	-11.3697
nts	-11.37
tuku	-11.3701
▁Edi	-11.3701
平	-11.3702
хъу	-11.3704
▁ero	-11.3704
rï	-11.3704
▁Espíritu	-11.3704
▁či	-11.3705
▁ọrụ	-11.3706
ред	-11.3706
yah	-11.3707
▁buhok	-11.3707
▁kontrol	-11.3707
▁tusa	-11.3708
cial	-11.3709
▁waan	-11.3709
▁kĩ	-11.3711
▁kanu	-11.3714
▁beh	-11.3714
▁bale	-11.3716
oka	-11.3717
सु	-11.3719
Ọ	-11.3719
▁Ла	-11.372
inge	-11.3721
ᕆ	-11.3722
▁لم	-11.3723
▁fak	-11.3725
▁रह	-11.3725
▁cii	-11.3726
▁pet	-11.3727
으로	-11.3728
gno	-11.3728
siz	-11.373
南	-11.373
Va	-11.3731
rõ	-11.3732
▁Malaysia	-11.3733
ஸ்	-11.3734
ני	-11.3734
▁ɖo	-11.3735
ư	-11.3737
後	-11.3737
▁мә	-11.3737
エ	-11.3738
け	-11.3738
ава	-11.374
▁vez	-11.3741
ائی	-11.3741
▁mʉ	-11.3742
▁kop	-11.3743
▁ngɛ	-11.3743
这	-11.3743
yada	-11.3743
▁zuo	-11.3743
lid	-11.3744
tike	-11.3746
▁kuta	-11.3749
▁kelen	-11.3749
▁izay	-11.375
▁Chichewa	-11.375
▁tani	-11.3751
tli	-11.3751
str	-11.3754
▁Italian	-11.3755
▁leis	-11.3756
▁opera	-11.3756
koko	-11.3756
▁паза	-11.3756
著	-11.3756
об	-11.3757
ဂ	-11.3757
▁omwa	-11.3757
▁sangat	-11.3758
appe	-11.3759
▁Say	-11.376
թ	-11.376
bad	-11.3761
▁Hal	-11.3761
▁Maa	-11.3762
里	-11.3763
▁KU	-11.3763
▁ג	-11.3764
▁stojol	-11.3765
ⵣ	-11.3765
▁anthu	-11.3766
▁take	-11.3766
ሞ	-11.3768
mọ	-11.3769
▁مان	-11.3769
ጻ	-11.3769
ా	-11.377
▁numa	-11.377
▁Tata	-11.3771
ლი	-11.3773
▁tenei	-11.3773
▁lege	-11.3773
▁ন	-11.3774
kú	-11.3774
ే	-11.3777
ebi	-11.3778
nï	-11.3778
▁meno	-11.3778
დ	-11.3778
▁ngagai	-11.3779
▁usun	-11.3779
yá	-11.3779
▁big	-11.3779
Ꮩ	-11.3785
信	-11.3785
▁және	-11.3785
安	-11.3786
cing	-11.3787
▁wañu	-11.3787
▁hali	-11.3787
erã	-11.3789
ех	-11.379
▁fari	-11.379
bua	-11.379
လို	-11.379
▁Awọn	-11.3791
▁oke	-11.3792
▁rap	-11.3793
ների	-11.3793
ыла	-11.3794
pper	-11.3795
или	-11.3795
ool	-11.38
▁чер	-11.38
▁ер	-11.3801
▁мон	-11.3802
ਜ	-11.3806
▁sport	-11.3807
▁waar	-11.3808
▁frá	-11.3808
▁Ча	-11.3809
▁लि	-11.381
▁ਵਿਚ	-11.381
tore	-11.3814
рон	-11.3815
▁kate	-11.3816
ход	-11.3817
pam	-11.3817
▁also	-11.3817
▁inai	-11.3817
hoo	-11.3817
▁Uni	-11.3819
yala	-11.382
▁ವಿ	-11.3822
ינג	-11.3823
▁сайт	-11.3823
فر	-11.3825
—�	-11.3826
ვა	-11.3828
rgi	-11.383
ଦ	-11.3831
▁Joseph	-11.3833
chita	-11.3834
DI	-11.3834
زی	-11.3835
▁kapab	-11.3836
nee	-11.3836
hta	-11.3836
▁timo	-11.3839
▁banget	-11.384
▁வி	-11.3843
ଟ	-11.3843
нат	-11.3844
▁зи	-11.3844
نت	-11.3844
▁~	-11.3844
▁TE	-11.3845
▁pir	-11.3845
esh	-11.3846
▁moment	-11.3847
▁nako	-11.3848
င	-11.3848
▁West	-11.3849
▁බ	-11.3849
މަ	-11.3849
▁kok	-11.385
▁ento	-11.3851
▁има	-11.3851
▁mole	-11.3852
રા	-11.3852
buru	-11.3853
lú	-11.3854
ẹn	-11.3855
lot	-11.3855
▁wek	-11.3855
goni	-11.3855
▁नै	-11.3856
▁സ	-11.3856
ሓ	-11.3856
▁ક	-11.3857
▁Bel	-11.3857
点	-11.386
▁προ	-11.3861
pula	-11.3862
▁Egipto	-11.3862
▁mine	-11.3862
عا	-11.3863
nud	-11.3863
US	-11.3864
▁Portuguese	-11.3866
▁dä	-11.3867
фа	-11.3867
܆	-11.3869
▁कारण	-11.387
enia	-11.3871
kuk	-11.3873
гер	-11.3873
▁وت	-11.3873
▁sawi	-11.3874
▁Las	-11.3874
▁cm	-11.3874
ま	-11.3875
▁lobo	-11.3875
dodo	-11.3875
fici	-11.3878
▁gá	-11.3879
ય	-11.388
႕	-11.3881
Traditional	-11.3882
Α	-11.3883
rni	-11.3885
pera	-11.3887
ების	-11.3887
▁ග	-11.389
ىل	-11.3892
ства	-11.3893
sî	-11.3893
סט	-11.3894
ûr	-11.3895
件	-11.3895
▁sir	-11.3897
vent	-11.39
▁ũ	-11.3901
▁ምስ	-11.3902
▁katei	-11.3903
▁кун	-11.3904
ୋ	-11.3904
▁taiñ	-11.3905
▁Don	-11.3905
▁уг	-11.3906
▁Aga	-11.3908
▁kī	-11.3909
▁ата	-11.391
▁كا	-11.391
ōm	-11.391
感	-11.3911
ದಲ್ಲಿ	-11.3911
hali	-11.3911
یش	-11.3912
အံၤ	-11.3912
▁einai	-11.3913
vm	-11.3916
▁kod	-11.3918
▁wambu	-11.3919
▁Wasa	-11.3919
▁sich	-11.3919
عان	-11.3922
▁булан	-11.3924
▁keta	-11.3926
rag	-11.3927
▁арт	-11.3927
миз	-11.3927
ቢ	-11.3928
ахь	-11.3928
▁орган	-11.3928
▁Order	-11.3929
ця	-11.3929
▁hela	-11.3931
နေ	-11.3935
▁mindi	-11.3936
▁rata	-11.3937
▁hava	-11.3938
▁nej	-11.3938
▁andi	-11.3938
dxi	-11.394
▁Bay	-11.3941
▁cit	-11.3941
lka	-11.3942
▁بود	-11.3942
хар	-11.3943
ност	-11.3944
▁wayuu	-11.3944
▁Ame	-11.3945
▁ਨੇ	-11.3945
hó	-11.3947
▁Ada	-11.3948
ӹ	-11.395
▁Tsi	-11.395
ᖏᑦ	-11.3951
▁స	-11.3952
कु	-11.3954
˰	-11.3954
▁người	-11.3954
ghan	-11.3954
ɨrɨ	-11.3956
वार	-11.3956
bung	-11.3957
δ	-11.3961
tot	-11.3965
▁karu	-11.3965
▁għal	-11.3967
被	-11.3967
ኻ	-11.3967
sht	-11.3967
▁gala	-11.3968
▁dödö	-11.3968
eja	-11.3969
▁hanga	-11.3971
▁laha	-11.3972
▁Africa	-11.3974
ôn	-11.3974
▁Of	-11.3975
лл	-11.3977
▁бур	-11.3977
вед	-11.3979
onga	-11.3979
▁Uma	-11.398
▁myit	-11.3982
▁alimwi	-11.3982
て	-11.3983
آ	-11.3984
oda	-11.3985
▁Rwot	-11.3985
wii	-11.3986
¦	-11.3986
ᑲ	-11.3989
ગ	-11.399
টো	-11.3991
انو	-11.3991
jā	-11.3992
ture	-11.3992
dei	-11.3994
zam	-11.3994
电	-11.3996
女	-11.3996
▁jest	-11.3997
▁وا	-11.3997
ynda	-11.4001
uwaa	-11.4002
▁gupai	-11.4003
ვე	-11.4003
▁ef	-11.4004
▁kii	-11.4004
۹	-11.4004
เ	-11.4004
▁fahk	-11.4004
▁sebe	-11.4005
▁sz	-11.4005
ール	-11.4005
rimu	-11.4006
▁যে	-11.4007
inal	-11.401
ài	-11.4011
▁bah	-11.4013
十	-11.4013
▁Ndebele	-11.4013
▁dek	-11.4013
riye	-11.4016
pika	-11.4016
▁مت	-11.4017
▁baine	-11.4019
yas	-11.4019
ას	-11.402
lani	-11.402
▁pis	-11.402
▁बु	-11.4021
dian	-11.4021
フ	-11.4022
মা	-11.4024
Bin	-11.4025
▁bango	-11.4026
jari	-11.4027
tora	-11.4028
▁otu	-11.403
nig	-11.4031
▁mili	-11.4033
▁etew	-11.4034
▁⸤	-11.4035
cent	-11.4036
▁grup	-11.4037
▁وان	-11.4037
▁класс	-11.4039
lyk	-11.404
▁tako	-11.4041
▁Ша	-11.4041
▁sampun	-11.4042
акъ	-11.4044
▁rong	-11.4045
în	-11.4046
рас	-11.4046
ⵉ	-11.4046
ņ	-11.4047
▁This	-11.4049
▁—¿	-11.4049
span	-11.405
▁allin	-11.405
ನಿ	-11.4053
kw	-11.4055
▁Dit	-11.4056
тт	-11.4056
▁modo	-11.4056
▁Thai	-11.4057
▁fait	-11.4058
ල්	-11.406
▁ء	-11.4061
▁anmar	-11.4061
▁Дар	-11.4062
Ε	-11.4064
taba	-11.4064
ntes	-11.4064
▁niet	-11.4064
kei	-11.4064
kken	-11.4065
▁áádóó	-11.4066
▁khal	-11.4067
ド	-11.4067
▁Mark	-11.4068
▁LE	-11.4069
▁nl	-11.407
ете	-11.407
▁mone	-11.4073
gro	-11.4073
▁ketin	-11.4073
▁Us	-11.4074
▁我們	-11.4074
▁Luo	-11.4077
dɔ	-11.4078
▁চা	-11.4078
tʋ	-11.4078
äl	-11.4079
piya	-11.4079
▁nebe	-11.408
▁iwi	-11.408
risa	-11.4081
үл	-11.4081
▁жо	-11.4081
ikh	-11.4083
▁memang	-11.4083
قى	-11.4084
ല്‍	-11.4084
ович	-11.4084
▁الن	-11.4086
ngku	-11.4087
▁Masa	-11.4089
▁pā	-11.4089
而	-11.409
▁må	-11.4091
eru	-11.4092
▁piny	-11.4092
рал	-11.4094
ներ	-11.4094
▁Levi	-11.4094
tumi	-11.4094
▁τὰ	-11.4095
လီ	-11.4097
ຂ	-11.4097
мей	-11.4098
ܸ	-11.4099
ɛ̀	-11.4099
▁tarai	-11.4099
▁yʉ	-11.4099
▁ਸੀ	-11.41
▁ces	-11.4101
siku	-11.4101
▁unha	-11.4101
ુ	-11.4101
▁kalu	-11.4102
ும்	-11.4102
▁pē	-11.4103
ари	-11.4105
▁masih	-11.4106
▁game	-11.4107
ीय	-11.4108
llar	-11.4108
awu	-11.4109
▁ё	-11.411
▁sä	-11.411
▁hoy	-11.411
itas	-11.4111
ope	-11.4112
Mar	-11.4114
ᕐᓂ	-11.4114
▁एह	-11.4114
▁pake	-11.4115
▁pira	-11.4115
▁sola	-11.4116
▁नु	-11.4117
upi	-11.4117
▁өз	-11.4118
▁tampi	-11.4118
▁உ	-11.4119
▁pulu	-11.4119
ði	-11.412
▁aji	-11.412
ແ	-11.412
ৰি	-11.4122
▁sac	-11.4122
ком	-11.4123
thar	-11.4124
pā	-11.4124
sita	-11.4126
▁ଓ	-11.4127
lelo	-11.4128
макъ	-11.4128
▁MLA	-11.413
gis	-11.4131
३	-11.4133
▁кижи	-11.4134
yaw	-11.4135
▁Bur	-11.4136
genda	-11.4139
rog	-11.4143
▁Bot	-11.4143
فت	-11.4144
ట	-11.4145
▁ngei	-11.4148
▁éé	-11.4148
aina	-11.4149
▁awaknyan	-11.415
▁dulu	-11.415
▁aju	-11.4151
▁svo	-11.4152
anik	-11.4153
▁uut	-11.4153
leni	-11.4154
ದು	-11.4155
▁ќе	-11.4156
кер	-11.4158
ная	-11.4161
Œì	-11.4161
وز	-11.4161
▁Бир	-11.4164
▁ikki	-11.4166
▁استفاده	-11.4167
բ	-11.4169
лиги	-11.4171
ꞌo	-11.4173
▁[[	-11.4173
tiri	-11.4174
یک	-11.4175
▁يا	-11.4176
▁impa	-11.4176
▁masi	-11.4177
ც	-11.4178
Øª	-11.4182
▁Maaron	-11.4183
▁jee	-11.4183
ട്ട	-11.4183
▁وقت	-11.4184
▁National	-11.4184
▁tongana	-11.4186
ី	-11.4187
▁Mbori	-11.4188
▁ન	-11.4189
ထား	-11.4189
▁pau	-11.419
▁пос	-11.419
κα	-11.419
mono	-11.4191
▁hone	-11.4192
pali	-11.4193
▁manusia	-11.4193
▁тут	-11.4194
▁Tumpa	-11.4195
ους	-11.4195
▁South	-11.4196
bini	-11.4197
ⴼ	-11.4197
””	-11.4197
tare	-11.4197
▁nɨ	-11.4198
▁план	-11.42
лав	-11.4201
rent	-11.4202
▁ಪ್ರ	-11.4203
▁dingin	-11.4203
▁మ	-11.4204
▁kule	-11.4206
kore	-11.4209
▁sena	-11.4209
lene	-11.421
LA	-11.421
▁كو	-11.421
▁Ха	-11.4211
▁pl	-11.4211
নবা	-11.4212
pere	-11.4213
▁Bat	-11.4215
▁parla	-11.4216
▁چا	-11.4218
▁winak	-11.4218
▁faire	-11.4218
ligt	-11.4221
▁hih	-11.4221
эс	-11.4223
ും	-11.4223
ям	-11.4223
ரி	-11.4225
jú	-11.4225
تە	-11.4228
▁All	-11.4228
afa	-11.4228
▁zin	-11.4229
inti	-11.4229
です	-11.423
cre	-11.4231
▁Chai	-11.4231
މް	-11.4232
ӧм	-11.4232
▁rawa	-11.4233
িত	-11.4233
▁Adi	-11.4233
▁سن	-11.4234
▁mila	-11.4238
▁mě	-11.4238
▁اوس	-11.4239
▁Μ	-11.4239
nê	-11.4241
name	-11.4241
лық	-11.4242
تے	-11.4245
sira	-11.4247
▁sogo	-11.4247
▁الس	-11.4248
▁ə	-11.4248
nj	-11.4249
ዩ	-11.4249
lly	-11.4249
這	-11.425
Ꮈ	-11.425
▁full	-11.425
unk	-11.425
▁आसा	-11.4252
▁You	-11.4253
▁Gyihova	-11.4255
▁ماسه	-11.4255
▁fata	-11.4255
तु	-11.4255
wet	-11.4257
έ	-11.4257
▁riẹ	-11.4259
፤	-11.4259
▁nad	-11.4263
È	-11.4264
ټ	-11.4264
ރަ	-11.4267
Roman	-11.4267
dil	-11.4271
▁pah	-11.4271
ǵan	-11.4271
▁wéi	-11.4272
▁which	-11.4272
ވެސް	-11.4273
▁بت	-11.4274
ோ	-11.4274
Oku	-11.4274
▁kino	-11.4275
▁yra	-11.4275
▁लबा	-11.4275
▁katoa	-11.4275
ト	-11.4277
▁Day	-11.4278
▁kono	-11.4278
գ	-11.4279
▁karne	-11.428
▁كان	-11.428
mei	-11.4281
▁राज	-11.4281
▁Oni	-11.4281
▁кам	-11.4282
機	-11.4283
▁бала	-11.4283
နဲ့	-11.4284
▁sambu	-11.4285
▁чу	-11.4285
▁teevq	-11.4285
٢	-11.4286
▁Ein	-11.4286
ээр	-11.4287
ṭ	-11.4288
tant	-11.4291
ẹ̌	-11.4292
▁siv	-11.4292
ိ	-11.4292
cui	-11.4293
اق	-11.4295
▁Cebuano	-11.4295
Pro	-11.4296
▁nishpa	-11.4297
▁taha	-11.4297
▁jau	-11.4297
▁shuo	-11.4297
▁Ewe	-11.4298
tî	-11.4298
λα	-11.4298
▁olsem	-11.4299
щи	-11.4299
▁need	-11.4299
susu	-11.43
रण	-11.43
▁gina	-11.4302
ама	-11.4302
▁sah	-11.4305
his	-11.4305
‌های	-11.4306
▁sę	-11.4306
▁rei	-11.4308
йи	-11.4308
lite	-11.4309
▁শ	-11.4309
ບໍ່	-11.4309
▁ɔ́	-11.431
ения	-11.431
▁wọn	-11.4312
▁kel	-11.4313
ɣa	-11.4313
pfu	-11.4314
▁region	-11.4314
ရှိ	-11.4315
cce	-11.4316
▁pwal	-11.4316
▁Tags	-11.4316
▁urbo	-11.4317
▁ndɛ	-11.4319
▁nder	-11.432
rati	-11.432
▁मार	-11.4321
▁interes	-11.4322
▁fyrir	-11.4324
leme	-11.4325
▁Lingala	-11.4325
ında	-11.4326
Man	-11.4326
sc	-11.4327
ꨲ	-11.4327
sson	-11.4328
▁meki	-11.4329
▁වි	-11.4329
▁homu	-11.433
▁Herodes	-11.433
މާ	-11.433
▁maru	-11.4331
▁Eg	-11.4331
▁τους	-11.4332
▁तु	-11.4333
ojn	-11.4334
▁Raja	-11.4334
уп	-11.4335
▁hao	-11.4337
▁vanhu	-11.434
▁new	-11.4341
▁айт	-11.4342
▁SE	-11.4343
▁bage	-11.4343
ाई	-11.4343
▁anyị	-11.4344
stal	-11.4345
▁Pue	-11.4346
▁jekh	-11.4346
o̒	-11.4347
▁keli	-11.4348
rini	-11.4348
▁hale	-11.4348
adas	-11.4349
▁Covid	-11.4349
▁tayo	-11.435
غا	-11.435
কী	-11.4352
ларына	-11.4353
？	-11.4353
▁mehe	-11.4353
▁smo	-11.4353
kpe	-11.4355
▁Россия	-11.4355
kī	-11.4355
▁phao	-11.4355
▁casa	-11.4356
▁nije	-11.4357
ത്ത	-11.4358
ခံ	-11.4358
tech	-11.4359
▁Tro	-11.4361
erte	-11.4362
a̱	-11.4362
lugu	-11.4362
wọ	-11.4362
▁राज्य	-11.4366
▁minn	-11.4366
ɔŋ	-11.4366
Ó	-11.4367
itz	-11.4368
կ	-11.4369
▁gao	-11.437
▁Bang	-11.4372
▁daɣ	-11.4374
▁ще	-11.4374
▁rala	-11.4374
▁kɔc	-11.4374
▁kuch	-11.4375
▁motor	-11.4375
▁Mit	-11.4378
gura	-11.4378
▁Robert	-11.4379
نْ	-11.438
▁Satana	-11.438
▁hku	-11.4383
zara	-11.4386
▁ngel	-11.4386
▁PA	-11.4387
ון	-11.4388
▁otro	-11.4389
lık	-11.4389
▁pam	-11.4389
▁yah	-11.439
▁nova	-11.439
ኽ	-11.4392
▁Kä	-11.4393
▁arti	-11.4395
하는	-11.4396
▁fale	-11.4396
݂	-11.4397
▁toys	-11.4397
▁iş	-11.4397
nong	-11.4399
▁những	-11.4399
ddo	-11.44
ក្នុង	-11.4402
路	-11.4402
▁jô	-11.4402
▁sup	-11.4403
▁kayi	-11.4405
sjon	-11.4405
▁tað	-11.4406
▁ons	-11.4406
ldi	-11.4407
▁пры	-11.4407
▁inyu	-11.4408
▁тор	-11.4409
ভ	-11.441
▁WA	-11.4414
▁жи	-11.4414
۳	-11.4414
▁kōn	-11.4416
▁ε	-11.4417
▁atah	-11.4417
▁dî	-11.4418
▁ntchito	-11.4418
Wikiibíídiiya	-11.4419
▁ወ	-11.442
▁मान	-11.4421
nyń	-11.4422
тым	-11.4422
▁Ina	-11.4423
zie	-11.4423
gola	-11.4425
▁nur	-11.4427
۴	-11.4428
thai	-11.4428
過	-11.4429
▁haya	-11.4429
▁מה	-11.443
▁gr	-11.4431
эх	-11.4433
bej	-11.4435
▁tax	-11.4436
лагъа	-11.4436
해	-11.4437
▁acel	-11.4438
kong	-11.4438
▁pela	-11.4439
ню	-11.4439
ýa	-11.4439
гай	-11.4439
▁гьар	-11.4439
電	-11.4439
tja	-11.444
ะ	-11.444
▁Usem	-11.4441
pale	-11.4443
bisa	-11.4443
▁Ɲanmiɛn	-11.4445
cis	-11.4446
▁ibmar	-11.4446
▁Quichua	-11.4446
гон	-11.4447
▁nja	-11.4448
ying	-11.4448
▁ond	-11.4449
▁mới	-11.445
▁hafa	-11.445
▁менән	-11.445
▁Una	-11.4452
▁boo	-11.4452
izi	-11.4455
гч	-11.4456
▁бара	-11.4456
▁donn	-11.4456
dores	-11.4457
▁gị	-11.4458
nqa	-11.446
▁qal	-11.4461
▁kasu	-11.4461
ู	-11.4462
▁Mala	-11.4462
▁Pay	-11.4463
▁Jyoba	-11.4463
dou	-11.4464
dul	-11.4466
saan	-11.4467
▁piya	-11.4467
▁rura	-11.4468
ၢ်	-11.4469
▁bedo	-11.447
▁system	-11.447
▁नाम	-11.447
▁person	-11.447
라	-11.4471
ި	-11.4472
fai	-11.4473
a̱a̱	-11.4473
sos	-11.4473
▁করে	-11.4474
ጸ	-11.4474
iha	-11.4475
▁Mateo	-11.4478
isme	-11.4478
ん	-11.4478
تٗ	-11.448
Ru	-11.4481
▁saja	-11.4482
▁sla	-11.4483
ɲɛ	-11.4483
▁Gado	-11.4483
▁mondo	-11.4483
جر	-11.4484
▁taku	-11.4485
YA	-11.4486
▁two	-11.4486
▁our	-11.4486
▁lokal	-11.4487
▁dipa	-11.4487
ศ	-11.4487
ء	-11.4488
▁soka	-11.4488
gah	-11.4489
▁Roh	-11.4489
nii	-11.4489
kker	-11.4491
▁etc	-11.4491
▁Ik	-11.4491
WA	-11.4493
teh	-11.4494
▁kamo	-11.4494
יק	-11.4494
▁Bala	-11.4494
त्य	-11.4495
▁Mus	-11.4497
▁Kirundi	-11.4498
▁jira	-11.45
▁imwe	-11.4501
stand	-11.4504
rod	-11.4504
ավ	-11.4505
يان	-11.4506
▁wari	-11.4508
lata	-11.4508
▁ئەم	-11.4508
влак	-11.4511
Lu	-11.4511
▁oil	-11.4512
▁spe	-11.4512
▁hune	-11.4513
▁Mali	-11.4513
ंद	-11.4513
nov	-11.4514
▁jɔ	-11.4514
ܨ	-11.4514
dja	-11.4514
▁pig	-11.4514
ⴹ	-11.4515
う	-11.4517
ḡo	-11.4518
▁vý	-11.4519
▁ላይ	-11.4519
▁reg	-11.4519
▁Jean	-11.4519
ޯ	-11.4521
ID	-11.4521
▁hën	-11.4521
ବା	-11.4522
台	-11.4522
▁chuka	-11.4523
▁جن	-11.4524
रु	-11.4524
fas	-11.4524
▁unna	-11.4524
▁töi	-11.4525
ные	-11.4526
▁सभ	-11.4527
▁nel	-11.4529
▁moi	-11.453
rp	-11.453
yuu	-11.4531
ӕн	-11.4531
▁bira	-11.4533
ᏍᏗ	-11.4533
ニ	-11.4534
ğan	-11.4535
▁بل	-11.4537
jta	-11.4537
▁muku	-11.4537
▁não	-11.4538
۷	-11.4538
▁gas	-11.4538
▁epo	-11.4539
ڊ	-11.4539
chus	-11.454
▁Aka	-11.4541
mot	-11.4541
ес	-11.4542
▁Malayalam	-11.4543
дым	-11.4543
▁piki	-11.4543
▁дека	-11.4544
teko	-11.4544
\_	-11.4544
िस	-11.4544
▁bunu	-11.4545
ॅ	-11.4545
தி	-11.4545
ْ	-11.4546
▁pẹlu	-11.4546
itai	-11.4547
▁zaman	-11.4548
▁ਵੀ	-11.4548
▁App	-11.4549
▁ibounai	-11.455
▁fà	-11.4551
▁ningo	-11.4552
▁kuo	-11.4554
сна	-11.4554
▁zve	-11.4554
tique	-11.4555
dada	-11.4555
▁dokopa	-11.4555
▁ਪ	-11.4555
▁ял	-11.4556
bô	-11.4557
talo	-11.4558
wiri	-11.4559
äär	-11.456
ા	-11.4562
▁гьа	-11.4564
нть	-11.4564
oki	-11.4565
CA	-11.4566
▁ڪ	-11.4566
ipi	-11.4569
▁cï	-11.4569
▁Usa	-11.4569
然	-11.457
το	-11.457
afi	-11.4571
tje	-11.4571
过	-11.4572
gr	-11.4572
bada	-11.4573
▁бел	-11.4573
▁Iloko	-11.4575
▁ام	-11.4576
目	-11.4577
▁Lua	-11.4577
шу	-11.4577
sari	-11.4577
ktor	-11.4579
eye	-11.458
sag	-11.458
▁Ми	-11.4581
▁бы	-11.4581
▁Diosta	-11.4582
▁tetelo	-11.4583
▁‡	-11.4583
ܢܐ	-11.4583
mile	-11.4585
bera	-11.4586
holo	-11.4587
kite	-11.4587
▁nap	-11.4589
▁ок	-11.4591
ված	-11.4591
lep	-11.4591
yna	-11.4591
▁deur	-11.4592
▁riy	-11.4593
имиз	-11.4594
▁එ	-11.4595
▁nicht	-11.4595
ဖ	-11.4596
원	-11.4598
▁pwo	-11.4598
nir	-11.4598
љ	-11.4599
enie	-11.4601
▁lix	-11.4601
yek	-11.4601
lege	-11.4602
bu̲	-11.4602
kasi	-11.4605
▁sá	-11.4606
ğı	-11.4607
▁aman	-11.4608
ûn	-11.4609
بو	-11.461
▁laban	-11.461
çion	-11.4612
els	-11.4612
pʉ	-11.4612
որ	-11.4613
हो	-11.4615
▁nwa	-11.4615
▁fia	-11.4619
гун	-11.4619
▁kja	-11.462
api	-11.4621
vos	-11.4621
ᒐ	-11.4622
▁France	-11.4622
對	-11.4623
kalo	-11.4624
▁эн	-11.4625
эп	-11.4625
▁thaq	-11.4625
▁Moises	-11.4626
Zimbabwe	-11.4626
▁Dius	-11.4628
وار	-11.4629
▁नहीं	-11.463
▁eman	-11.4631
▁ɓe	-11.4631
να	-11.4635
ၚ	-11.4638
post	-11.4639
rop	-11.464
▁болгон	-11.464
ș	-11.464
тур	-11.4641
▁rek	-11.4641
▁nasida	-11.4642
▁savo	-11.4642
eder	-11.4645
kuma	-11.4645
▁zay	-11.4646
Juan	-11.4646
▁niyu	-11.4646
လႆႈ	-11.4647
kod	-11.4648
▁aivq	-11.4648
▁י	-11.4648
тӥ	-11.4649
▁soi	-11.4652
nyama	-11.4653
▁Tagalog	-11.4653
▁ditu	-11.4653
ළ	-11.4654
таш	-11.4654
ຢູ່	-11.4654
rid	-11.4654
▁شا	-11.4655
ี	-11.4656
tawan	-11.4656
പ്പ	-11.4656
▁الف	-11.4656
▁tỗp	-11.4656
▁bola	-11.4657
▁ἐ	-11.4658
▁Guarani	-11.4658
▁biso	-11.466
ंत	-11.4661
▁sɔrɔ	-11.4661
▁ٿي	-11.4662
မှ	-11.4663
▁songon	-11.4663
ತಾ	-11.4667
▁Tamil	-11.4667
kane	-11.4667
އެވެ	-11.4668
رى	-11.4673
llata	-11.4673
•´	-11.4676
ador	-11.4678
▁ফ	-11.4678
▁Web	-11.4678
▁sue	-11.468
hut	-11.468
▁Tor	-11.4681
mere	-11.4682
▁meda	-11.4682
ась	-11.4682
▁ስ	-11.4683
gak	-11.4685
toni	-11.4685
▁bibi	-11.4686
▁Bor	-11.4686
▁bini	-11.4687
▁baja	-11.4689
ら	-11.4691
▁Shona	-11.4691
tile	-11.4692
▁Vu	-11.4692
wah	-11.4693
▁даа	-11.4694
▁penis	-11.4695
pene	-11.4695
ologi	-11.4695
▁Hol	-11.4696
▁nüxü̃	-11.4697
ಯಾ	-11.47
fl	-11.47
▁✡	-11.4701
ⴰⵜ	-11.4702
बो	-11.4703
▁\_	-11.4704
نە	-11.4706
nab	-11.4706
▁zijn	-11.4707
алъ	-11.4707
▁Dii	-11.4708
▁kiñe	-11.4709
▁ආ	-11.471
▁mambu	-11.4713
ӹм	-11.4713
▁بىر	-11.4714
nua	-11.4714
서	-11.4714
勒	-11.4714
ให้	-11.4715
▁yake	-11.4715
▁yachachi	-11.4715
ilan	-11.4716
së	-11.4716
▁TI	-11.4719
▁লৈ	-11.4721
▁কি	-11.4721
ြ	-11.4722
▁marka	-11.4722
▁patut	-11.4723
▁Media	-11.4725
china	-11.4725
site	-11.4727
▁Þ	-11.473
▁ም	-11.4731
▁jọ	-11.4732
▁δια	-11.4732
▁ngwa	-11.4733
▁مي	-11.4733
bos	-11.4734
▁tane	-11.4736
ނީ	-11.4736
gaan	-11.4736
▁tika	-11.4737
cak	-11.4737
ciones	-11.4738
▁koro	-11.4738
▁ubi	-11.474
▁sym	-11.474
ими	-11.4741
akin	-11.4741
ូ	-11.4741
ລະ	-11.4742
тың	-11.4742
ышты	-11.4742
▁Win	-11.4744
iru	-11.4745
▁prze	-11.4745
্	-11.4745
papa	-11.4746
шка	-11.4746
▁ntau	-11.4746
lê	-11.4746
ique	-11.4747
Vi	-11.4747
×	-11.4748
▁Bank	-11.4749
ania	-11.4749
plo	-11.4749
fit	-11.475
▁zá	-11.475
ंड	-11.4751
▁kitai	-11.4751
像	-11.4753
aman	-11.4754
يم	-11.4754
▁iek	-11.4756
▁яр	-11.4756
▁wë	-11.4757
dagi	-11.4758
Ë	-11.4759
ލަ	-11.476
झ	-11.476
▁apre	-11.4762
▁Afrikaans	-11.4762
立	-11.4762
▁Tsonga	-11.4763
▁Hotel	-11.4763
ουν	-11.4764
▁Má	-11.4765
▁dö	-11.4767
ivq	-11.4767
fil	-11.4767
suu	-11.4767
▁گو	-11.4768
▁abia	-11.4769
కి	-11.4769
▁�	-11.4769
▁Nov	-11.4769
▁пред	-11.477
▁Bɛ	-11.477
▁maro	-11.4771
kamba	-11.4771
▁vera	-11.4773
ữ	-11.4773
▁ⴷⴰⵗ	-11.4773
▁как	-11.4774
▁نال	-11.4779
▁kultur	-11.4779
▁Efik	-11.4779
▁Mei	-11.478
neg	-11.478
ном	-11.478
kej	-11.4781
pti	-11.4782
ⵖ	-11.4783
▁Че	-11.4783
▁Santa	-11.4784
puk	-11.4784
lenge	-11.4784
▁gus	-11.4787
مر	-11.4787
▁Esta	-11.4789
▁telefon	-11.479
▁Dat	-11.4791
▁Io	-11.4792
ෙ	-11.4793
▁ova	-11.4794
တ္	-11.4795
▁इन	-11.4796
އަށް	-11.4796
建	-11.4797
นี้	-11.4797
▁love	-11.4797
bhi	-11.48
кон	-11.4801
▁Kinyarwanda	-11.4803
▁agen	-11.4805
▁Республика	-11.4805
▁Lowalangi	-11.4806
ܲ	-11.4806
▁cik	-11.4808
tonu	-11.4809
iwe	-11.4809
vik	-11.481
▁نہ	-11.481
naw	-11.4812
▁local	-11.4812
表	-11.4812
оп	-11.4813
▁Eb	-11.4813
બ	-11.4815
ndaka	-11.4815
▁Hari	-11.4817
fé	-11.4817
▁कै	-11.4817
жо	-11.4818
▁کل	-11.4818
▁luga	-11.4818
▁তা	-11.4818
▁Ele	-11.482
▁Karen	-11.4821
▁iena	-11.4822
song	-11.4823
န္	-11.4823
▁tja	-11.4825
ût	-11.4826
linga	-11.4826
ຈາກ	-11.4826
स्ट	-11.4827
ման	-11.4827
Ж	-11.4827
bong	-11.483
▁заман	-11.4831
dap	-11.4831
rgan	-11.4831
où	-11.4831
▁ያ	-11.4831
▁dels	-11.4833
▁mab	-11.4833
▁mp	-11.4834
▁וואָס	-11.4835
an̈	-11.4836
BA	-11.4836
స	-11.4837
▁lori	-11.4838
унда	-11.4838
▁liber	-11.4839
▁ಕಾ	-11.4839
▁وچ	-11.4839
▁jos	-11.484
▁ம	-11.4841
▁Top	-11.4842
ით	-11.4842
▁bek	-11.4843
ÛŒÙ	-11.4844
现	-11.4845
!!!	-11.4846
▁ɲɛ	-11.4849
▁Naibata	-11.4849
ವಿ	-11.485
miş	-11.4851
dri	-11.4852
▁grande	-11.4852
spi	-11.4853
▁Anduane	-11.4853
▁pano	-11.4853
cum	-11.4854
stad	-11.4858
ܬܐ	-11.4859
▁hwe	-11.4859
게	-11.4859
nz	-11.4859
ዚ	-11.4859
ข	-11.486
fir	-11.4861
pya	-11.4861
▁pulak	-11.4863
▁اين	-11.4865
ىنىڭ	-11.4865
lf	-11.4866
▁agar	-11.4866
▁TUHAN	-11.4867
▁bok	-11.4867
qan	-11.4868
▁নি	-11.4868
▁Malay	-11.4868
tting	-11.4869
▁saat	-11.4869
▁byen	-11.4869
▁website	-11.4871
sok	-11.4871
▁nimbe	-11.4872
▁bó	-11.4873
uwe	-11.4873
▁lani	-11.4873
▁cel	-11.4873
▁qara	-11.4874
▁Cy	-11.4875
lian	-11.4876
▁gratis	-11.4879
▁été	-11.488
ttar	-11.488
lov	-11.488
▁pres	-11.4881
▁iji	-11.4882
Ꮂ	-11.4882
ީ	-11.4882
сты	-11.4883
ẹ̌	-11.4885
odu	-11.4885
पि	-11.4885
▁pī	-11.4887
ɑn	-11.4887
диз	-11.4889
ең	-11.489
ët	-11.4891
တ်	-11.4891
ruh	-11.4892
▁सँ	-11.4893
там	-11.4894
▁Мар	-11.4895
“,	-11.4895
▁Timor	-11.4896
▁ngulo	-11.4896
ூ	-11.4898
६	-11.49
гин	-11.4901
ತ್ತ	-11.4901
tula	-11.4901
▁pré	-11.4904
▁Й	-11.4905
▁kụ	-11.4905
ost	-11.4905
▁aꞌɨ́jna	-11.4905
ord	-11.4906
ithe	-11.4908
▁nê	-11.4908
▁''	-11.4908
▁natural	-11.4909
rac	-11.4909
▁jul	-11.4909
cä	-11.491
ggu	-11.4911
▁प्रति	-11.4911
▁тус	-11.4911
ރި	-11.4912
일	-11.4914
▁dor	-11.4915
fla	-11.4916
ח	-11.4916
하	-11.4917
▁kye	-11.4917
▁န	-11.4917
üü	-11.4919
▁Fon	-11.4919
▁Mont	-11.4921
ото	-11.4921
yot	-11.4921
▁기	-11.4923
رُو	-11.4924
▁cro	-11.4924
▁Long	-11.4924
▁ት	-11.4924
ഹ	-11.4924
▁Maka	-11.4925
нц	-11.4926
יה	-11.4927
▁Ua	-11.4928
▁gera	-11.4928
tle	-11.4929
ަށް	-11.4929
lc	-11.493
એ	-11.493
▁Tsa	-11.4931
▁نام	-11.4931
▁kóng	-11.4933
▁Vol	-11.4933
▁Ду	-11.4934
▁tüfa	-11.4935
▁ming	-11.4937
ப்ப	-11.4937
▁face	-11.4937
▁छल	-11.4938
pash	-11.4939
masa	-11.4939
mmu	-11.4939
▁iwa	-11.494
▁bude	-11.494
▁persona	-11.494
кор	-11.4941
数	-11.4941
▁Wat	-11.4943
nani	-11.4943
ଟି	-11.4943
wadi	-11.4944
டு	-11.4947
▁spas	-11.4947
▁Dina	-11.4948
нда	-11.4948
▁qué	-11.4948
efa	-11.4949
ף	-11.495
tarr	-11.495
▁raan	-11.4951
muka	-11.4951
▁price	-11.4951
▁alang	-11.4951
▁ǎ	-11.4952
ᖃᑦᑕ	-11.4952
▁wanda	-11.4952
▁awu	-11.4953
۰	-11.4954
mbar	-11.4955
▁Yehovah	-11.4955
▁Igbo	-11.4955
נה	-11.4955
alis	-11.4956
ނެ	-11.4956
bie	-11.4956
▁кер	-11.4957
top	-11.4957
تن	-11.4957
▁Gaad	-11.4959
▁mulai	-11.496
▁nko	-11.4963
lv	-11.4963
▁aton	-11.4964
ás	-11.4966
▁Ä	-11.4967
ޭ	-11.4967
▁театр	-11.4968
гаш	-11.4969
bab	-11.4972
ফ	-11.4972
pawl	-11.4972
কা	-11.4973
▁taon	-11.4973
ły	-11.4975
▁namo	-11.4975
tig	-11.4976
▁fuq	-11.4976
▁biya	-11.4976
mise	-11.4978
▁Oromo	-11.4978
성	-11.4979
▁Mer	-11.4979
kui	-11.498
चो	-11.498
ვი	-11.498
ნ	-11.4984
មក	-11.4984
▁ਤੇ	-11.4985
нт	-11.4985
ਤੇ	-11.4986
▁bù	-11.4988
▁συν	-11.499
qqa	-11.4991
ވި	-11.4992
lili	-11.4992
رم	-11.4992
acht	-11.4993
▁eren	-11.4994
tid	-11.4997
டி	-11.4998
▁Samaria	-11.4998
она	-11.4998
▁بۇ	-11.4998
▁lui	-11.4999
▁mira	-11.5
nice	-11.5001
yani	-11.5001
▁nämene	-11.5001
▁kg	-11.5001
▁cost	-11.5003
ingi	-11.5003
cción	-11.5004
▁iran	-11.5004
lıq	-11.5005
longo	-11.5006
cɛ	-11.5006
▁tudi	-11.5008
يات	-11.5009
।”	-11.5009
▁produk	-11.501
ণ	-11.5011
lẹ	-11.5012
kê	-11.5012
obu	-11.5012
gali	-11.5013
သော	-11.5013
eer	-11.5013
ovi	-11.5014
бор	-11.5015
▁эз	-11.5016
rimo	-11.5016
ism	-11.5017
▁Club	-11.5017
▁luku	-11.5019
uya	-11.5019
▁Debata	-11.5019
▁mita	-11.5019
▁SI	-11.502
▁bẹ	-11.5021
▁ti̱	-11.5022
сэн	-11.5024
▁lum	-11.5024
▁radio	-11.5026
ဒ	-11.5027
▁tras	-11.5029
sela	-11.5029
▁Kongo	-11.5029
yaj	-11.5031
র্	-11.5031
โ	-11.5033
ţi	-11.5035
▁Ա	-11.5035
ái	-11.5037
ൂ	-11.5037
▁لي	-11.5038
cl	-11.5038
▁समय	-11.504
մ	-11.5041
▁déwé	-11.5041
lerini	-11.5041
nus	-11.5041
বি	-11.5041
▁dik	-11.5042
tale	-11.5042
MP	-11.5043
nnan	-11.5044
દ	-11.5045
▁ni̱	-11.5045
▁engün	-11.5045
ရာ	-11.5046
▁ת	-11.5046
▁yaoq	-11.5047
▁due	-11.5048
▁people	-11.5048
真	-11.5049
ەت	-11.5052
siko	-11.5052
ӧд	-11.5052
rro	-11.5054
achadh	-11.5054
▁bekin	-11.5054
Lesotho	-11.5055
âm	-11.5057
nah	-11.5057
制	-11.5058
▁atawa	-11.506
▁dano	-11.506
Ꭸ	-11.5061
▁mour	-11.5062
къу	-11.5062
▁ntse	-11.5063
.”+	-11.5063
▁सर्व	-11.5064
▁Bin	-11.5064
▁видео	-11.5065
▁One	-11.5066
▁--	-11.5067
▁ura	-11.507
▁importante	-11.507
OS	-11.5072
guma	-11.5074
▁plu	-11.5075
▁bout	-11.5076
▁zor	-11.5076
kwata	-11.5077
ූ	-11.5077
▁huma	-11.5077
दे	-11.5077
▁Tang	-11.5078
▁Europe	-11.5078
▁बी	-11.5079
nī	-11.5079
یل	-11.5079
žu	-11.5079
▁feypi	-11.5082
ކޮށް	-11.5084
▁vali	-11.5084
etti	-11.5084
▁Cun	-11.5084
▁spi	-11.5085
tán	-11.5085
▁ẹke	-11.5087
▁ogoni	-11.5091
ᓪᓗ	-11.5092
rĩ	-11.5093
тик	-11.5097
ᔨ	-11.5098
tayo	-11.5099
▁raj	-11.5099
▁ಮು	-11.51
▁tō	-11.5102
wolo	-11.5104
Gu	-11.5104
▁caah	-11.5104
▁vê	-11.5104
▁Pilato	-11.5105
▁live	-11.5105
▁ह्या	-11.5106
isto	-11.5106
lii	-11.5106
▁kapav	-11.5107
press	-11.5108
▁song	-11.511
▁ಹ	-11.5111
▁બ	-11.5111
dali	-11.5114
meri	-11.5115
▁pane	-11.5116
▁informa	-11.5116
▁fla	-11.5116
▁ɣöö	-11.5117
вай	-11.5118
▁მი	-11.5118
lär	-11.5119
▁сав	-11.5119
IT	-11.512
▁Los	-11.5122
yini	-11.5123
▁vart	-11.5125
▁dul	-11.5125
▁билан	-11.513
ош	-11.513
tende	-11.5131
▁uwe	-11.5132
バ	-11.5134
▁phaq	-11.5134
ल्	-11.5134
▁French	-11.5134
▁иде	-11.5137
anka	-11.5139
▁lus	-11.5139
▁ido	-11.5141
họ	-11.5142
ངས་	-11.5143
tine	-11.5143
TS	-11.5143
▁pass	-11.5146
ө	-11.5146
▁како	-11.5146
▁neke	-11.5147
▁għall	-11.5147
▁xc	-11.5148
▁taba	-11.5149
яз	-11.5149
▁mimi	-11.5149
था	-11.515
▁ዓ	-11.515
▁api	-11.5151
lte	-11.5152
cuy	-11.5153
wia	-11.5153
▁ओच्‍छे	-11.5154
▁የተ	-11.5154
ыгъ	-11.5155
▁kilo	-11.5156
シ	-11.5156
民	-11.5157
▁work	-11.5159
▁oto	-11.516
ань	-11.516
▁Ти	-11.516
টা	-11.5162
▁ind	-11.5162
Wo	-11.5163
▁isch	-11.5163
mint	-11.5165
▁še	-11.5166
éiert	-11.5166
▁akin	-11.5167
xix	-11.5167
وو	-11.5167
▁사	-11.5167
۶	-11.5172
mbra	-11.5175
▁Владимир	-11.5176
▁Ре	-11.5176
▁dob	-11.5178
၁	-11.5178
zali	-11.5178
ër	-11.5179
दार	-11.5179
▁kukhala	-11.518
aju	-11.5181
нин	-11.5182
▁Lohiabada	-11.5182
▁lâng	-11.5183
▁Amo	-11.5184
тара	-11.5185
יד	-11.5186
tă	-11.5186
一個	-11.5187
▁mundo	-11.5187
▁ping	-11.5188
ὴ	-11.519
boro	-11.519
תי	-11.519
łkaahí	-11.5192
▁hier	-11.5193
blo	-11.5194
▁شهر	-11.5194
▁personal	-11.5195
hing	-11.5196
▁अपने	-11.5196
க்கு	-11.5197
မိ	-11.5198
▁Judas	-11.5201
▁lavur	-11.5203
▁Ө	-11.5203
рав	-11.5204
tey	-11.5206
spe	-11.5206
▁seki	-11.5207
դ	-11.5207
stitu	-11.5208
hli	-11.5209
ned	-11.5209
▁ijo	-11.521
▁American	-11.521
▁Хо	-11.5211
▁kò	-11.5211
▁neih	-11.5212
▁gbɛ	-11.5212
hir	-11.5213
▁тура	-11.5213
يون	-11.5213
▁Yoruba	-11.5213
▁phala	-11.5213
gawa	-11.5214
menti	-11.5217
▁Noa	-11.5217
▁мер	-11.5218
daa	-11.5219
▁num	-11.5219
면	-11.5224
mama	-11.5224
▁هغه	-11.5224
▁mulu	-11.5225
▁ການ	-11.5225
▁politik	-11.5225
ngal	-11.5227
▁they	-11.5227
▁jang	-11.5227
▁ಎ	-11.5228
တော့	-11.5229
ვ	-11.5229
▁afa	-11.523
▁ከም	-11.523
▁nto	-11.5231
▁ip	-11.5231
▁kêm	-11.5232
naꞌ	-11.5234
▁ነው	-11.5234
▁quia	-11.5235
▁guni	-11.5235
शो	-11.5236
▁hante	-11.5236
▁လၢ	-11.5239
▁nnꞌaⁿ	-11.5239
▁eya	-11.5239
▁vini	-11.5241
▁Yennu	-11.5241
▁كل	-11.5241
▁stat	-11.5243
ରି	-11.5244
ەکانی	-11.5246
ttha	-11.5247
▁کن	-11.5247
ন্দ	-11.5247
▁Ки	-11.5249
▁eus	-11.5249
toy	-11.5249
▁Nabi	-11.525
€™	-11.5251
▁oya	-11.5251
▁prin	-11.5253
teke	-11.5256
▁leka	-11.5256
▁hanya	-11.5256
▁Russian	-11.5258
▁totona	-11.5258
▁тап	-11.5258
情	-11.5259
به	-11.526
▁Ata	-11.526
kutu	-11.526
sian	-11.5261
မ့ၢ်	-11.5262
གི་	-11.5263
deetįįhii	-11.5265
▁wase	-11.5267
▁Dane	-11.5267
▁մ	-11.5267
ット	-11.5269
▁ME	-11.5271
チ	-11.5272
▁الح	-11.5273
▁lelei	-11.5274
▁solu	-11.5275
жэ	-11.5276
nter	-11.5276
ատ	-11.5277
▁ibugua	-11.5277
ске	-11.5278
▁သ	-11.5279
ulan	-11.528
ൻ	-11.5281
▁ور	-11.5281
wok	-11.5282
nor	-11.5284
dla	-11.5285
▁zva	-11.5287
раз	-11.5288
ngeng	-11.5288
ялъул	-11.5289
▁whẹ	-11.5289
уч	-11.5289
▁vano	-11.529
ச	-11.5293
মান	-11.5294
▁Thi	-11.5295
▁Asi	-11.5295
▁deiłníig	-11.5295
lash	-11.5298
▁majaw	-11.53
bik	-11.53
▁wasi	-11.5301
toq	-11.5302
▁seri	-11.5302
ῶν	-11.5303
дим	-11.5304
▁hue	-11.5305
molo	-11.5305
や	-11.5306
ᓚ	-11.5306
bee	-11.5307
һы	-11.5307
ping	-11.531
▁Nzapa	-11.531
▁των	-11.5311
▁Faka	-11.5311
▁къ	-11.5312
▁τον	-11.5312
ove	-11.5313
တီႈ	-11.5314
apu	-11.5315
▁geb	-11.5316
ël	-11.5316
▁degi	-11.5316
▁itan	-11.5316
რი	-11.5318
▁macam	-11.5319
др	-11.532
eur	-11.5321
▁à	-11.5322
▁ச	-11.5322
▁CH	-11.5322
ೈ	-11.5322
soo	-11.5322
▁zhan	-11.5323
▁binni	-11.5324
▁gua	-11.5324
२	-11.5325
ýan	-11.5325
▁karena	-11.5326
mic	-11.5327
▁mian	-11.5327
muk	-11.5328
▁δὲ	-11.5328
▁γ	-11.5329
▁maach	-11.533
▁design	-11.5331
ngé	-11.5333
kë	-11.5333
▁nso	-11.5336
ති	-11.5336
▁file	-11.5336
▁регион	-11.534
▁Health	-11.534
原	-11.5341
khia	-11.5341
▁muta	-11.5341
өө	-11.5342
Pu	-11.5342
ór	-11.5343
бир	-11.5343
▁eile	-11.5343
▁komp	-11.5345
▁st	-11.5346
身	-11.5347
▁cỡt	-11.5347
mie	-11.5347
▁ಒ	-11.5348
▁Rwanda	-11.5348
▁እቲ	-11.5348
▁Sala	-11.535
ría	-11.5352
upa	-11.5355
эхэ	-11.5356
ᓱ	-11.5356
▁tip	-11.5358
▁tv	-11.5361
دي	-11.5361
raja	-11.5363
wyr	-11.5365
pie	-11.5365
▁vum	-11.5369
▁sohte	-11.537
යේ	-11.5371
▁jeung	-11.5373
▁PC	-11.5374
▁ਕਰ	-11.5374
ⵍ	-11.5375
▁ēkwa	-11.5377
ズ	-11.5378
λε	-11.538
▁cham	-11.538
▁ۉ	-11.538
▁tucui	-11.538
▁mẹ	-11.538
မ်း	-11.5381
উ	-11.5381
▁mía	-11.5382
ür	-11.5383
oon	-11.5383
ntar	-11.5384
पुर	-11.5385
▁bako	-11.5386
▁upa	-11.5386
፡፡	-11.5386
rö	-11.5386
▁వి	-11.5387
▁ekonomi	-11.5387
▁nome	-11.5389
▁upang	-11.5391
oje	-11.5392
▁leen	-11.5392
▁Yn	-11.5392
▁thể	-11.5393
▁nguro	-11.5393
aia	-11.5394
amento	-11.5395
▁tq	-11.5395
sú	-11.5396
▁ã	-11.5396
▁naye	-11.5396
hong	-11.5399
hwe	-11.5399
▁kano	-11.5399
▁Ie	-11.54
low	-11.54
▁pien	-11.5401
▁Gor	-11.5401
medi	-11.5402
yaka	-11.5402
▁prote	-11.5404
ಂಡ	-11.5404
pwe	-11.5405
▁know	-11.5407
内	-11.5407
▁Shu	-11.5407
▁yikahj	-11.5408
▁Petro	-11.5411
▁къэ	-11.5411
बे	-11.5412
▁tuan	-11.5413
baga	-11.5414
▁hosi	-11.5414
zik	-11.5414
▁otta	-11.5415
▁huwa	-11.5415
▁atin	-11.5416
▁وہ	-11.5416
७	-11.5417
▁lim	-11.5418
▁many	-11.5418
nogo	-11.5418
▁kil	-11.5421
IL	-11.5421
▁yaj	-11.5421
ttan	-11.5421
▁সে	-11.5422
ܵ	-11.5422
က္	-11.5422
▁EU	-11.5424
▁noi	-11.5424
ഷ	-11.5424
्व	-11.5427
▁لپاره	-11.5427
▁فى	-11.5427
▁кӱ	-11.5428
сына	-11.5428
▁nrog	-11.5428
мас	-11.5428
ພ	-11.5429
ứ	-11.543
km	-11.5431
sab	-11.5432
▁ambo	-11.5433
tê	-11.5433
▁Tatar	-11.5433
▁hobe	-11.5433
ܵܐ	-11.5433
paa	-11.5433
Ы	-11.5434
▁pov	-11.5435
▁Bena	-11.5436
raga	-11.5437
ዎች	-11.5437
म्ह	-11.5437
▁Cal	-11.5438
ɛ̈	-11.5441
▁uhur	-11.5442
▁taim	-11.5443
▁dep	-11.5443
zem	-11.5443
క్	-11.5444
пер	-11.5444
አ	-11.5444
▁Paris	-11.5444
जि	-11.5445
▁بين	-11.5445
ಚಿ	-11.5446
cut	-11.5446
▁riba	-11.5446
▁plant	-11.5447
дг	-11.5448
▁суд	-11.5448
ىسى	-11.5449
▁misy	-11.5449
▁Mah	-11.5449
▁Kikuyu	-11.5449
▁ਇੱਕ	-11.5449
cap	-11.5451
▁Page	-11.5452
▁Kannada	-11.5452
бин	-11.5454
▁lembe	-11.5454
loj	-11.5454
▁ulih	-11.5455
▁Ano	-11.5456
▁خرد	-11.5456
オ	-11.5456
▁lứq	-11.5457
äk	-11.5457
▁mawulé	-11.5457
▁пе	-11.5458
iman	-11.5459
fua	-11.546
▁cumo	-11.546
▁saj	-11.5461
▁peg	-11.5462
تان	-11.5462
ಜ	-11.5463
▁mb	-11.5463
▁gwo	-11.5464
▁гор	-11.5467
ਤਾ	-11.5469
▁dila	-11.547
bru	-11.547
▁Nin	-11.5471
έ	-11.5471
piri	-11.5471
има	-11.5474
▁kwene	-11.5474
မၤ	-11.5475
misi	-11.5475
▁sebagai	-11.5476
ᒧᑦ	-11.5478
rot	-11.5478
▁министр	-11.5478
angan	-11.5479
▁illa	-11.5479
प्‍	-11.548
▁Ас	-11.548
▁chique	-11.5482
▁Jewba	-11.5482
ǎ	-11.5483
▁ishima	-11.5483
nman	-11.5483
ču	-11.5485
kie	-11.5486
гор	-11.5487
▁antuk	-11.5487
वन	-11.5488
▁dae	-11.5489
amp	-11.5489
uun	-11.549
▁Baka	-11.549
ಯ್	-11.5491
чен	-11.5491
ໄປ	-11.5491
ուն	-11.5491
гийн	-11.5492
▁چھ	-11.5492
ӱ	-11.5494
▁aktiv	-11.5495
بي	-11.5496
ⴱ	-11.5496
პ	-11.5496
n̈e	-11.5496
ዱ	-11.5499
کا	-11.55
рек	-11.5501
తి	-11.5501
▁dindi	-11.5502
▁Հ	-11.5504
▁Chan	-11.5505
▁hele	-11.5505
lui	-11.5505
▁φ	-11.5505
vola	-11.5505
▁tabi	-11.5505
▁mol	-11.5507
iň	-11.5508
ਦਾ	-11.5509
▁פּ	-11.5511
▁јер	-11.5511
▁Korean	-11.5511
ḡi	-11.5511
▁Ли	-11.5514
డి	-11.5515
▁یې	-11.5515
grad	-11.5515
нес	-11.5516
အိၣ်	-11.5518
gula	-11.5519
▁лъа	-11.552
ақ	-11.552
▁duk	-11.552
shy	-11.5521
DE	-11.5521
ohi	-11.5521
gul	-11.5522
lola	-11.5523
thei	-11.5523
гал	-11.5525
▁daha	-11.5526
న్	-11.5526
гъы	-11.5526
▁pop	-11.5528
▁ఈ	-11.5529
င်း	-11.5529
رن	-11.553
sow	-11.5531
▁школ	-11.5531
▁Italia	-11.5531
▁सी	-11.5532
४	-11.5533
▁nok	-11.5534
▁וה	-11.5535
▁durante	-11.5538
▁кир	-11.5538
▁Spanish	-11.5539
▁frå	-11.5539
ribu	-11.5542
▁mũ	-11.5542
▁most	-11.5542
ерге	-11.5542
wch	-11.5543
▁Ami	-11.5543
dana	-11.5543
▁medi	-11.5547
▁tein	-11.5548
វា	-11.5548
▁ע	-11.5548
golong	-11.5549
peri	-11.555
▁unga	-11.5551
▁Martin	-11.5551
▁pene	-11.5551
ᒃᑯᑦ	-11.5551
ric	-11.5552
мар	-11.5553
ங்க	-11.5553
▁Kol	-11.5553
▁ananin	-11.5554
▁pê	-11.5554
jara	-11.5555
▁પ	-11.5555
އު	-11.5555
▁wā	-11.5556
▁Auto	-11.5556
ās	-11.5556
asan	-11.5558
▁сир	-11.5558
tiro	-11.5558
▁←	-11.556
▁gaba	-11.556
▁මේ	-11.556
Penis	-11.556
▁ayo	-11.556
《	-11.5561
▁str	-11.5561
▁هن	-11.5562
▁белән	-11.5563
sent	-11.5564
▁beli	-11.5564
▁daar	-11.5566
cel	-11.5568
み	-11.5568
ຕ	-11.5568
onde	-11.5569
▁there	-11.557
▁tei	-11.557
▁башка	-11.557
▁এক	-11.557
ద	-11.5571
▁Free	-11.5572
▁код	-11.5573
kî	-11.5573
ލި	-11.5574
rf	-11.5574
▁аны	-11.5575
▁ਜ	-11.5575
kiwa	-11.5576
▁quema	-11.5576
▁ук	-11.5577
▁gang	-11.5579
mén	-11.558
ယွၤ	-11.5581
▁Urdu	-11.5582
ῆ	-11.5582
наң	-11.5583
▁hiek	-11.5583
▁Col	-11.5584
ନା	-11.5585
版	-11.5587
rr	-11.5587
▁күн	-11.5589
▁Ir	-11.5589
▁ٿو	-11.5589
▁ಗ	-11.5589
سم	-11.559
▁Kra	-11.559
ƒ	-11.559
▁Sango	-11.5591
▁Amma	-11.5591
▁দি	-11.5591
▁itti	-11.5592
▁фа	-11.5593
ކު	-11.5593
▁ish	-11.5594
ďa	-11.5594
sɔ	-11.5597
▁топ	-11.5597
▁వ	-11.5597
стр	-11.5598
cci	-11.5598
сар	-11.5598
ૂ	-11.56
▁син	-11.5601
tac	-11.5602
▁ikatu	-11.5602
ques	-11.5603
▁kɩ	-11.5604
▁meer	-11.5606
ភាព	-11.5607
▁यह	-11.5608
▁kpe	-11.5608
ім	-11.5609
▁yeh	-11.5609
даш	-11.561
▁Kirghiz	-11.561
хы	-11.561
▁pacha	-11.5612
▁ᑭ	-11.5613
ไป	-11.5614
ແມ່ນ	-11.5615
ਸ਼	-11.5615
▁hä	-11.5615
▁MI	-11.5616
ப	-11.5616
esta	-11.5617
naki	-11.5618
rite	-11.5618
▁rɛy	-11.5619
▁nʌm	-11.5622
▁baga	-11.5623
▁kla	-11.5624
ós	-11.5625
▁anima	-11.5625
ель	-11.5626
zzi	-11.5626
ӓш	-11.5627
▁chto	-11.5627
ða	-11.5628
ಗಳು	-11.5628
lder	-11.5629
王	-11.5629
或	-11.5629
ını	-11.5631
▁гар	-11.5631
▁buch	-11.5632
▁Luk	-11.5633
▁वे	-11.5634
ຈ	-11.5635
▁aon	-11.5636
▁প্ৰ	-11.5636
▁വി	-11.5637
ތައް	-11.5638
▁bati	-11.5638
elt	-11.564
ури	-11.564
▁baad	-11.5641
▁sese	-11.5641
▁Oo	-11.5641
hora	-11.5642
အီၤ	-11.5642
леге	-11.5643
▁organiz	-11.5644
cions	-11.5645
CC	-11.5645
oga	-11.5645
▁Bak	-11.5647
▁dí	-11.5647
bles	-11.5648
▁Eu	-11.5648
▁പ്ര	-11.5648
য়ে	-11.5651
▁الك	-11.5652
алар	-11.5653
▁Australia	-11.5657
▁tey	-11.5657
رس	-11.566
ꨤ	-11.566
화	-11.566
▁enengo	-11.5661
▁مش	-11.5662
jque	-11.5662
▁Silozi	-11.5662
лим	-11.5662
▁rod	-11.5663
▁ста	-11.5664
ажа	-11.5664
▁Pangasinan	-11.5664
▁anca	-11.5665
yit	-11.5665
ṛ	-11.5665
став	-11.5665
▁jama	-11.5665
cʉ	-11.5666
▁પર	-11.5667
▁deli	-11.5667
▁եւ	-11.5668
SA	-11.5668
▁bian	-11.5669
▁telā	-11.5671
đa	-11.5671
ът	-11.5672
িক	-11.5672
dura	-11.5673
▁Bro	-11.5673
▁kolā	-11.5674
▁нә	-11.5674
▁control	-11.5674
yow	-11.5675
▁Sk	-11.5675
其	-11.5676
sasa	-11.5676
▁Nde	-11.5676
▁nɛ́	-11.5677
▁jiu	-11.5677
ών	-11.5678
সু	-11.5678
itat	-11.5679
ribi	-11.5679
▁ⴰⵎ	-11.568
▁ezali	-11.568
miento	-11.568
▁roh	-11.5681
nıñ	-11.5681
atti	-11.5682
キ	-11.5686
▁nemen	-11.5686
▁Ash	-11.5687
▁tablet	-11.5687
self	-11.5687
హ	-11.569
lā	-11.5692
▁Natural	-11.5692
८	-11.5692
จะ	-11.5693
wek	-11.5693
▁बहुत	-11.5695
▁Jehoava	-11.5695
▁kud	-11.5696
▁sababu	-11.5697
jes	-11.5697
cker	-11.5698
▁upi	-11.5699
▁Oromoo	-11.5699
lago	-11.57
ից	-11.57
ег	-11.57
▁wê	-11.5702
▁ngut	-11.5702
hee	-11.5702
▁nale	-11.5703
▁mapu	-11.5709
shì	-11.571
▁Ph	-11.5711
▁मिनु	-11.5712
▁ngaran	-11.5714
xel	-11.5715
▁حال	-11.5716
agu	-11.5716
ngngi	-11.5717
▁defini	-11.5717
▁siam	-11.5717
▁Polish	-11.5718
၏	-11.5719
.*	-11.5719
ិ	-11.5719
▁bus	-11.5721
nɨ	-11.5721
ंच	-11.5722
▁cù	-11.5723
▁dawn	-11.5724
wina	-11.5725
▁hɔ	-11.5726
ahu	-11.5726
字	-11.5726
▁century	-11.5726
ɗe	-11.5727
▁vale	-11.5727
ಕಾ	-11.5727
▁paano	-11.5729
▁мый	-11.5729
▁izany	-11.5732
▁Yɛ	-11.5733
▁important	-11.5734
ݨ	-11.5734
▁flu	-11.5735
rda	-11.5736
nite	-11.5736
ܰܘ	-11.5737
▁Islam	-11.5738
дам	-11.5738
▁perlu	-11.5738
ਡ	-11.5738
▁bilo	-11.5738
▁μας	-11.5739
▁ngati	-11.5739
▁ichi	-11.5739
▁kepada	-11.5739
▁juo	-11.5741
уа	-11.5743
▁ID	-11.5744
ኖ	-11.5745
基	-11.5746
ຜູ້	-11.5746
kou	-11.5746
ەر	-11.5746
▁mwaka	-11.5746
▁dingangu	-11.5747
▁Jiizas	-11.5747
▁zien	-11.5748
▁बो	-11.5749
ナ	-11.5749
▁same	-11.5749
▁ז	-11.5749
次	-11.5749
alam	-11.575
▁Kurmanji	-11.575
於	-11.575
片	-11.575
▁bung	-11.5752
▁få	-11.5753
lï	-11.5754
造	-11.5754
ļo̧k	-11.5754
▁gou	-11.5754
▁roman	-11.5756
nix	-11.5757
▁epa	-11.5759
yee	-11.5759
eze	-11.5759
▁gibi	-11.576
▁waj	-11.576
wI	-11.576
▁Tom	-11.5762
gay	-11.5764
▁Gri	-11.5764
▁اَ	-11.5764
ĉ	-11.5764
pok	-11.5767
▁eyi	-11.5767
▁fɛɛ	-11.5768
▁Fra	-11.5769
▁også	-11.577
ချ	-11.577
yero	-11.5771
ous	-11.5771
▁lawan	-11.5771
dr	-11.5772
ezi	-11.5772
רי	-11.5773
▁general	-11.5774
▁vas	-11.5774
არ	-11.5774
▁wanee	-11.5775
барои	-11.5775
▁yib	-11.5776
HA	-11.5777
▁Ky	-11.5777
bɑ	-11.5778
ivi	-11.5778
ولو	-11.5778
ವು	-11.5779
▁sera	-11.5779
▁yigè	-11.5779
▁kutya	-11.578
rze	-11.5781
▁pawh	-11.5782
bone	-11.5782
▁zel	-11.5783
ør	-11.5783
▁first	-11.5784
▁ግን	-11.5785
ቦ	-11.5785
ဏ	-11.5786
▁sud	-11.5786
vq	-11.5786
ಕ್ಕೆ	-11.5786
ང	-11.5787
chis	-11.5789
▁place	-11.5789
rupa	-11.579
ே	-11.5791
▁mantad	-11.5792
▁bii	-11.5795
աց	-11.5795
▁সা	-11.5795
▁sünain	-11.5796
mbung	-11.5796
▁State	-11.5797
ाइ	-11.5797
▁tamin	-11.5797
ίας	-11.58
ણ	-11.58
glia	-11.58
sila	-11.5802
IN	-11.5803
nke	-11.5805
▁mākou	-11.5805
▁apar	-11.5805
از	-11.5806
HO	-11.5806
hul	-11.5808
▁evit	-11.5808
▁ori	-11.5809
မှု	-11.5809
ize	-11.581
bou	-11.5813
त्व	-11.5813
▁Dee	-11.5814
▁xju	-11.5814
ယူ	-11.5815
▁menga	-11.5815
亚	-11.5816
▁ئى	-11.5816
པར་	-11.5817
جو	-11.5817
tapis	-11.5818
ES	-11.5819
▁төр	-11.5821
ANA	-11.5821
jh	-11.5821
▁κ	-11.5822
▁юрт	-11.5822
oho	-11.5824
νη	-11.5824
▁महा	-11.5825
beli	-11.5826
▁פ	-11.5828
ኩ	-11.5828
▁nɑ	-11.5829
▁манын	-11.5829
▁aram	-11.5829
ອ	-11.5831
▁شد	-11.5831
dru	-11.5831
▁tola	-11.5832
▁ego	-11.5832
▁sɔɔ	-11.5833
yɔɔ	-11.5833
▁adda	-11.5833
batan	-11.5834
tē	-11.5834
▁disa	-11.5834
ۊ	-11.5834
▁See	-11.5835
▁Bungiu	-11.5836
▁ray	-11.5837
▁vona	-11.5837
ό	-11.5838
ľ	-11.584
▁sind	-11.584
▁manang	-11.5842
▁сё	-11.5842
зер	-11.5843
អា	-11.5843
▁wena	-11.5844
▁ɲyɛ	-11.5844
▁Tɔn	-11.5845
▁bida	-11.5846
▁organ	-11.5847
ikka	-11.5847
▁Ais	-11.5847
lech	-11.5847
Ꮪ	-11.5848
די	-11.5848
▁۔	-11.585
▁чы	-11.585
лъи	-11.585
▁lian	-11.5851
بل	-11.5852
▁egke	-11.5856
ġi	-11.5858
ına	-11.5858
yata	-11.586
нек	-11.586
▁back	-11.586
▁кем	-11.5862
▁Parti	-11.5862
ichi	-11.5863
rqan	-11.5863
ucha	-11.5863
▁При	-11.5863
yä	-11.5864
▁Bas	-11.5864
вт	-11.5864
▁Tal	-11.5865
	-11.5868
▁poder	-11.5868
sine	-11.587
ಜಿ	-11.587
▁acu	-11.587
▁akon	-11.5871
▁cja	-11.5873
▁dede	-11.5874
isk	-11.5877
nisa	-11.5878
sup	-11.5879
mark	-11.5879
gela	-11.5879
mann	-11.588
；	-11.588
rqanku	-11.5881
şi	-11.5881
▁Mɛ	-11.5882
▁जाय	-11.5882
▁fua	-11.5882
٬	-11.5884
ⵉⵍ	-11.5884
ngai	-11.5885
▁sme	-11.5885
ᕈ	-11.5886
nọ	-11.5886
ซ	-11.5886
▁Luka	-11.5888
▁سم	-11.5889
dari	-11.5889
gaba	-11.589
▁promo	-11.589
▁kè	-11.589
▁kowé	-11.5891
tiña	-11.5891
▁qai	-11.5892
▁cin	-11.5893
giri	-11.5893
▁do̠	-11.5894
ⴰ	-11.5895
受	-11.5896
uyu	-11.5896
ਰਾ	-11.5897
тта	-11.5898
ngele	-11.5899
ဢ	-11.5899
▁hie	-11.5901
hum	-11.5901
зі	-11.5901
▁tsun	-11.5901
▁zui	-11.5902
▁Apo	-11.5902
romo	-11.5903
wyd	-11.5903
ʹ	-11.5904
▁koni	-11.5904
▁mou	-11.5905
▁lot	-11.5905
veni	-11.5906
▁Ꮷ	-11.5906
▁Aq	-11.5907
▁але	-11.5907
▁virus	-11.5907
थे	-11.591
解	-11.591
▁най	-11.591
▁rume	-11.5911
ⵉⵜ	-11.5911
▁dekena	-11.5911
說	-11.5912
▁kopo	-11.5912
ὸ	-11.5912
▁ges	-11.5913
▁bhe	-11.5913
roni	-11.5913
▁puo	-11.5915
取	-11.5915
▁τη	-11.5915
▁މަ	-11.5918
▁pɛ	-11.5918
ള	-11.5918
▁tɩ	-11.5919
▁eis	-11.5919
′	-11.592
rij	-11.5921
▁või	-11.5921
५	-11.5921
▁Xhosa	-11.5922
وری	-11.5923
▁Bal	-11.5923
▁Widi	-11.5924
▁estis	-11.5924
▁möön	-11.5925
▁baha	-11.5926
եց	-11.5927
ауэ	-11.5927
▁Kal	-11.5928
KA	-11.5929
▁~~~~~~	-11.5931
▁zina	-11.5931
▁لئے	-11.5932
tako	-11.5933
▁quechua	-11.5933
ант	-11.5933
▁Lai	-11.5934
cina	-11.5934
▁siab	-11.5935
▁Ο	-11.5935
dow	-11.5935
▁popular	-11.5936
ښ	-11.5937
他	-11.5938
rangi	-11.5938
店	-11.5939
�¼	-11.5939
alaj	-11.594
sión	-11.5941
tze	-11.5941
തി	-11.5941
▁келген	-11.5944
ီ	-11.5944
ья	-11.5944
▁Luganda	-11.5944
▁ᓄᓇ	-11.5945
▁Sub	-11.5947
▁tiya	-11.5948
▁आय	-11.5949
yans	-11.5949
▁magi	-11.5949
yaan	-11.595
▁nü	-11.595
יש	-11.595
ffa	-11.5951
uer	-11.5951
▁Land	-11.5951
▁kome	-11.5952
redi	-11.5953
жу	-11.5953
టి	-11.5955
вен	-11.5955
pr	-11.5956
▁software	-11.5956
арин	-11.5958
ලා	-11.5959
▁radi	-11.5959
▁để	-11.5959
▁ntawv	-11.596
▁datang	-11.596
▁diad	-11.596
hɔ	-11.5961
լ	-11.5961
pta	-11.5962
rv	-11.5963
ᖅᑐ	-11.5964
тӕ	-11.5965
▁mene	-11.5967
suma	-11.5967
σα	-11.5967
▁î	-11.5967
avo	-11.5969
▁نوں	-11.597
▁masuk	-11.597
▁muh	-11.597
nap	-11.5974
ٔ	-11.5975
రా	-11.5975
দের	-11.5976
ıl	-11.5976
▁jó	-11.5976
yay	-11.5977
ncha	-11.5977
▁gwé	-11.5977
otik	-11.5978
fr	-11.5978
पु	-11.5979
▁oor	-11.5983
▁ಸಾ	-11.5983
▁דעם	-11.5984
rije	-11.5984
melo	-11.5984
▁сер	-11.5985
kanda	-11.5986
▁mw	-11.5987
及	-11.5987
▁ddau	-11.5988
▁mongo	-11.5988
በት	-11.5989
aoq	-11.5989
тра	-11.5989
▁Pin	-11.599
nego	-11.599
ಸಿ	-11.5991
ᕙ	-11.5991
dú	-11.5991
galu	-11.5991
▁taumata	-11.5992
▁pac	-11.5992
�˜	-11.5992
▁nima	-11.5992
サ	-11.5993
▁balik	-11.5997
▁konm	-11.5998
धा	-11.5998
▁એક	-11.5999
нің	-11.6
gni	-11.6
ക്ക്	-11.6001
▁ⴷⴰ	-11.6001
rja	-11.6003
▁jil	-11.6003
▁Daud	-11.6003
אַל	-11.6003
lubo	-11.6006
▁ewen	-11.6006
▁Bul	-11.6006
▁laka	-11.6006
Ᏼ	-11.6007
muri	-11.6007
▁Yàlla	-11.6007
дат	-11.6009
▁Polo	-11.601
▁fem	-11.601
 	-11.6012
нас	-11.6012
▁къу	-11.6012
ەك	-11.6013
yı	-11.6014
▁nuan	-11.6014
▁Lwa	-11.6014
区	-11.6015
▁थ्व	-11.6015
▁چُھ	-11.6016
ksyon	-11.6016
▁Sim	-11.6017
hlu	-11.6017
тыҥ	-11.6018
mbula	-11.602
ブ	-11.6021
නා	-11.6021
rry	-11.6021
vio	-11.6022
▁Facebook	-11.6022
▁kü	-11.6023
▁ਬ	-11.6025
▁aini	-11.6026
▁ieu	-11.6026
▁jiao	-11.6026
▁‹	-11.6027
▁ýa	-11.6027
vek	-11.6029
ња	-11.6029
zal	-11.603
▁ਨਹੀਂ	-11.6032
eyi	-11.6032
▁zaw	-11.6032
rif	-11.6032
ว่า	-11.6033
▁menjadi	-11.6033
uto	-11.6033
▁cewa	-11.6034
▁ⵢ	-11.6035
chten	-11.6035
іп	-11.6036
skih	-11.6037
NG	-11.6037
▁Ev	-11.6038
laš	-11.6038
ایی	-11.6038
သား	-11.6039
▁Xikwembu	-11.604
▁مە	-11.604
▁mite	-11.6041
▁dụ	-11.6042
әм	-11.6042
▁ун	-11.6042
▁jä	-11.6043
グ	-11.6043
▁مل	-11.6043
شن	-11.6044
▁വ	-11.6045
vert	-11.6045
RO	-11.6046
hak	-11.6047
נו	-11.6048
chay	-11.6049
mesi	-11.605
▁gbɔn	-11.6051
州	-11.6051
enu	-11.6052
▁laho	-11.6054
▁Var	-11.6057
▁sci	-11.6057
▁það	-11.6057
▁bajiro	-11.6059
▁Czech	-11.606
ੀਆਂ	-11.606
လို့	-11.6061
ဖြစ်	-11.6063
▁babo	-11.6063
▁توهان	-11.6064
ੈ	-11.6065
▁lotu	-11.6067
ḷ	-11.6068
nako	-11.6069
▁tuaj	-11.607
트	-11.6071
▁Spe	-11.6072
يِ	-11.6072
dzie	-11.6072
▁എ	-11.6072
▁sixu	-11.6072
▁ndra	-11.6072
ນັ້ນ	-11.6072
itt	-11.6073
lys	-11.6073
▁قا	-11.6073
▁Dy	-11.6074
ाच्या	-11.6075
जन	-11.6075
▁Kin	-11.6076
▁Aymara	-11.6077
▁hara	-11.6077
yɩ	-11.6077
▁rê	-11.6078
▁hólǫ́	-11.608
τά	-11.6082
डा	-11.6083
▁Kala	-11.6085
ments	-11.6087
▁dian	-11.6087
▁biex	-11.6088
▁kinie	-11.6088
œê	-11.6088
▁moka	-11.6089
今	-11.6092
tira	-11.6096
▁bukan	-11.6097
hap	-11.6098
ാണ്	-11.61
îya	-11.61
▁nung	-11.61
ܼ	-11.6101
ёр	-11.6102
twe	-11.6102
uno	-11.6103
loo	-11.6104
▁Keriso	-11.6105
nova	-11.6105
▁sisa	-11.6107
urin	-11.6108
vra	-11.6111
ghị	-11.6111
pish	-11.6111
ું	-11.6112
tv	-11.6113
מי	-11.6113
асы	-11.6114
长	-11.6114
هن	-11.6115
▁sva	-11.6116
كا	-11.6116
ýy	-11.6116
ars	-11.6119
▁अन	-11.6119
sien	-11.6119
▁their	-11.612
▁apak	-11.612
▁пот	-11.612
▁biasa	-11.6122
meng	-11.6122
sali	-11.6122
▁kew	-11.6122
▁Kho	-11.6123
▁Xe	-11.6124
由	-11.6125
▁ota	-11.6125
상	-11.6125
ート	-11.6126
▁manera	-11.6127
▁аь	-11.6127
▁Aôndo	-11.6129
ndri	-11.613
дис	-11.6131
▁Ib	-11.6131
sque	-11.6132
बी	-11.6134
▁kabu	-11.6134
cı	-11.6135
hela	-11.6135
RI	-11.6135
▁sebab	-11.6137
ញ	-11.6137
▁كُرُ	-11.6138
德	-11.6141
▁전	-11.6141
اري	-11.6142
▁miwah	-11.6143
▁aal	-11.6144
schen	-11.6144
▁pè	-11.6145
▁sek	-11.6145
▁sisi	-11.6145
▁चल	-11.6145
▁saman	-11.6146
▁centro	-11.6147
Sal	-11.6148
▁гӹц	-11.6149
▁юр	-11.615
▁Ис	-11.615
ది	-11.6151
vim	-11.6151
ێکی	-11.6152
▁cer	-11.6152
Fi	-11.6152
▁এবং	-11.6153
ᒥᒃ	-11.6154
▁Jose	-11.6154
口	-11.6154
ଲା	-11.6154
▁gana	-11.6154
▁ఎ	-11.6154
▁iyya	-11.6155
▁Af	-11.6155
▁ਹੋ	-11.6155
▁ମ	-11.6155
▁Sɛ	-11.6156
vare	-11.6157
▁######	-11.6157
▁khoiq	-11.6159
▁ار	-11.616
無	-11.6161
गे	-11.6162
ense	-11.6163
dwe	-11.6163
▁kinia	-11.6163
vha	-11.6163
cama	-11.6165
shun	-11.6165
▁cya	-11.6165
▁لاءِ	-11.6165
▁Wen	-11.6165
sere	-11.6167
▁enɛ	-11.6167
chau	-11.6167
▁være	-11.6167
ებს	-11.6167
▁Hel	-11.6169
▁eine	-11.6169
▁ел	-11.6169
▁iqsanl	-11.6169
سو	-11.6171
▁ⵜⵎ	-11.6171
▁sngi	-11.6174
yle	-11.6175
▁anam	-11.6177
puru	-11.6177
▁sav	-11.6178
▁jeh	-11.6179
▁element	-11.618
ſ	-11.618
ீ	-11.618
བྱ	-11.6181
pir	-11.6181
着	-11.6181
リー	-11.6183
▁Telugu	-11.6184
ৰা	-11.6185
kiti	-11.6185
▁harus	-11.6185
zak	-11.6186
ET	-11.6186
▁č	-11.6188
deg	-11.6189
▁જે	-11.6189
▁watu	-11.619
▁માટે	-11.619
▁Iehova	-11.619
ވ	-11.619
ىنى	-11.619
hele	-11.619
▁Mil	-11.6191
llet	-11.6191
balo	-11.6193
▁puri	-11.6193
▁tit	-11.6194
llam	-11.6195
ର୍	-11.6198
​—	-11.6198
▁üçün	-11.6198
▁antu	-11.6199
▁Ok	-11.62
▁tami	-11.6201
▁kön	-11.6201
▁siti	-11.6203
▁NE	-11.6204
▁எ	-11.6205
▁bansa	-11.6205
起	-11.6206
ight	-11.6206
εί	-11.6206
▁Japanese	-11.6206
nganga	-11.6207
لان	-11.6209
流	-11.621
二	-11.621
፥	-11.621
kate	-11.6211
Ç	-11.6213
▁éta	-11.6214
▁ᎨᏒ	-11.6214
▁vah	-11.6214
▁maku	-11.6215
▁Си	-11.6215
▁fos	-11.6217
▁dig	-11.6218
бэ	-11.6218
ére	-11.6218
音	-11.6218
دىن	-11.622
▁lavi	-11.6221
cta	-11.6222
▁роз	-11.6222
▁اللي	-11.6223
ibin	-11.6223
▁кан	-11.6224
ޓް	-11.6224
▁दी	-11.6225
▁bate	-11.6225
ె	-11.6226
stel	-11.6228
dya	-11.6228
സി	-11.6229
fica	-11.6229
nwa	-11.623
аса	-11.623
星	-11.6231
▁mpa	-11.6233
▁toto	-11.6233
hitumbuka	-11.6234
▁Med	-11.6234
와	-11.6235
πο	-11.6236
▁dainai	-11.6236
▁avo	-11.6236
ᒡ	-11.6236
zhu	-11.6241
ները	-11.6241
▁Bah	-11.6242
Ꭼ	-11.6242
ंक	-11.6244
▁Omu	-11.6244
ু	-11.6244
▁އެވެ	-11.6245
▁dada	-11.6245
চা	-11.6245
lij	-11.6246
müin	-11.625
▁nguno	-11.625
kto	-11.625
▁ог	-11.6251
▁cont	-11.6251
ithi	-11.6251
長	-11.6251
ष्ट	-11.6252
▁daut	-11.6253
tov	-11.6253
▁Inter	-11.6255
向	-11.6255
▁ನ	-11.6257
する	-11.6258
▁Gro	-11.6258
▁хэ	-11.6259
▁Ly	-11.6259
dà	-11.6259
▁ሕ	-11.6259
شا	-11.6259
▁ич	-11.626
▁Ieova	-11.626
elela	-11.6261
aza	-11.6262
tzeko	-11.6262
નું	-11.6262
▁aber	-11.6263
nbsp	-11.6264
▁Armenian	-11.6264
pih	-11.6264
▁yave	-11.6264
▁kid	-11.6265
larını	-11.6265
▁Nor	-11.6265
jie	-11.6266
▁hjá	-11.6267
ئر	-11.6268
▁vadaeni	-11.6268
лӧн	-11.6268
▁tres	-11.6269
dü	-11.627
യും	-11.627
▁миллион	-11.6271
íŠ	-11.6271
▁Lal	-11.6272
▁thang	-11.6272
рес	-11.6272
mna	-11.6273
tico	-11.6273
hti	-11.6273
ビ	-11.6274
▁عمل	-11.6274
тып	-11.6274
▁Radio	-11.6275
དེ་	-11.6275
riz	-11.6276
▁Plan	-11.6276
▁luka	-11.6277
ª	-11.6278
▁đã	-11.6279
北	-11.6279
utik	-11.6279
̶	-11.6281
▁шы	-11.6281
ार	-11.6281
nad	-11.6281
▁Medi	-11.6283
qy	-11.6283
larni	-11.6283
▁pule	-11.6283
▁labo	-11.6284
arã	-11.6285
bema	-11.6286
▁toma	-11.6286
▁Bha	-11.6286
▁વ	-11.6286
▁وِچ	-11.6288
▁ڪرڻ	-11.6289
râ	-11.6292
▁bà	-11.6292
▁bobo	-11.6293
wane	-11.6293
܀	-11.6294
dien	-11.6294
.’”	-11.6295
Ꮥ	-11.6295
gid	-11.6295
▁ಜಾ	-11.6296
soro	-11.6297
klar	-11.6298
uꞌ	-11.6299
aje	-11.6299
pio	-11.6299
ӧр	-11.6299
haa	-11.6299
▁gɛt	-11.63
хай	-11.63
rine	-11.6301
ܺܝ	-11.6301
▁onder	-11.6301
ან	-11.6302
nuk	-11.6303
▁fis	-11.6303
ялда	-11.6303
▁بەر	-11.6304
▁sulu	-11.6304
ент	-11.6306
▁naha	-11.6306
аст	-11.6307
ছ	-11.6309
നി	-11.631
▁Park	-11.6312
вл	-11.6312
▁ic	-11.6313
▁że	-11.6313
▁got	-11.6313
▁धा	-11.6313
และ	-11.6313
oja	-11.6313
khan	-11.6313
▁Ih	-11.6314
oys	-11.6314
dama	-11.6314
▁dhara	-11.6315
▁ett	-11.6315
teli	-11.6316
nyan	-11.6316
▁ung	-11.6317
дың	-11.632
▁Ena	-11.632
▁rac	-11.6321
ҙа	-11.6322
rito	-11.6323
ngwe	-11.6324
lg	-11.6325
▁kade	-11.6326
ɛrɛ	-11.6326
▁тал	-11.6326
▁थ	-11.6327
ৰে	-11.6327
mita	-11.6328
ၶဝ်	-11.6328
▁Police	-11.6329
▁Аз	-11.633
▁කර	-11.633
▁tant	-11.633
▁लगी	-11.6331
▁ඒ	-11.6331
▁Yaya	-11.6332
▁nona	-11.6332
िन	-11.6333
gɨ	-11.6334
hka	-11.6335
ders	-11.6335
▁bl	-11.6336
▁гэжэ	-11.6336
ੁ	-11.6337
パ	-11.6337
▁Pla	-11.6337
▁tiwai	-11.6337
gee	-11.6337
▁misi	-11.6338
▁họ	-11.6338
▁þa	-11.6338
▁yisdzoh	-11.6338
rc	-11.6339
▁lov	-11.6341
▁list	-11.6341
ႇ	-11.6343
▁Greek	-11.6344
▁тил	-11.6344
▁hawe	-11.6346
▁Malagasy	-11.6346
क्	-11.6347
နိုင်	-11.6348
▁Мы	-11.6349
नाय	-11.635
▁көр	-11.6351
ỡ	-11.6352
▁neganai	-11.6356
roo	-11.6357
▁Hei	-11.6358
▁py	-11.6358
▁deuh	-11.6358
▁jaye	-11.6359
“¤	-11.636
Ji	-11.6361
haka	-11.6363
▁comun	-11.6364
▁nenu	-11.6364
▁nape	-11.6365
аж	-11.6366
▁دستگاه	-11.6366
osta	-11.6367
ⵓⵏ	-11.6367
▁олар	-11.6367
▁kure	-11.6368
дагы	-11.6369
eku	-11.6371
मु	-11.6371
scht	-11.6371
▁thar	-11.6372
▁nebo	-11.6372
▁ପ୍ର	-11.6372
تھ	-11.6372
▁temp	-11.6372
▁मुबा	-11.6372
ON	-11.6373
那	-11.6374
nchis	-11.6374
rena	-11.6374
aso	-11.6375
▁ары	-11.6375
giya	-11.6376
▁ato	-11.6377
сі	-11.6377
▁hman	-11.6378
mui	-11.6378
ނ	-11.6379
TE	-11.638
▁University	-11.638
▁penga	-11.638
stva	-11.638
▁apan	-11.6381
▁James	-11.6382
▁तू	-11.6383
▁jua	-11.6383
▁lalo	-11.6383
lada	-11.6384
sida	-11.6384
▁Non	-11.6385
инь	-11.6385
交	-11.6388
ଲି	-11.6389
mbala	-11.6389
inda	-11.639
ät	-11.639
▁art	-11.6391
ass	-11.6393
▁Ле	-11.6394
alli	-11.6394
ngngé	-11.6395
▁સ	-11.6396
▁تە	-11.6396
Ꮸ	-11.6396
▁pong	-11.6396
kre	-11.6397
ջ	-11.6398
▁tshia	-11.6398
▁ಮಾ	-11.6399
▁Kile	-11.64
世界	-11.64
▁nguya	-11.6402
zə	-11.6403
▁lika	-11.6404
▁ví	-11.6404
lise	-11.6405
▁yini	-11.6406
▁jaol	-11.6406
ပှၤ	-11.6406
tonga	-11.6406
lish	-11.6407
ети	-11.6409
გ	-11.641
▁open	-11.641
▁nari	-11.641
ლო	-11.6411
ރީ	-11.6412
▁Super	-11.6413
sey	-11.6413
رات	-11.6414
ffer	-11.6416
ⵓⴷ	-11.6417
▁dayózhí	-11.6417
▁kuu	-11.6417
▁Yos	-11.6418
bok	-11.642
рын	-11.6421
▁Manama	-11.6422
̌	-11.6423
▁परमप्रभु	-11.6423
ləri	-11.6423
ება	-11.6424
▁paar	-11.6424
stä	-11.6424
▁gula	-11.6426
▁lahi	-11.6426
ပေး	-11.6426
スト	-11.6427
ents	-11.643
gele	-11.643
▁आज	-11.6432
mira	-11.6432
▁Mme	-11.6432
ၼႆ	-11.6433
ీ	-11.6433
ṣ	-11.6435
UN	-11.6435
▁Elia	-11.6435
ві	-11.6436
လား	-11.6437
▁Yehovha	-11.6438
▁ilə	-11.6438
▁hanesan	-11.6438
▁reh	-11.6439
él	-11.6439
▁color	-11.6439
▁vbe	-11.6439
▁hilou	-11.6439
▁repwe	-11.6439
ọn	-11.644
▁fó	-11.644
ыгъэ	-11.6441
ಮಾ	-11.6441
▁Red	-11.6441
ига	-11.6441
tzij	-11.6442
▁milli	-11.6443
주	-11.6444
▁ohun	-11.6445
▁mwan	-11.6446
▁iuia	-11.6447
yk	-11.6447
▁Sab	-11.6447
▁kumaa	-11.6447
▁stre	-11.6448
▁gele	-11.6448
neng	-11.645
▁moul	-11.645
aire	-11.6451
ُو	-11.6452
▁арга	-11.6454
izo	-11.6454
▁Anna	-11.6455
ως	-11.6456
▁edhe	-11.6457
제	-11.6457
оло	-11.6457
▁ën	-11.6458
▁Ane	-11.6458
▁pere	-11.6458
onton	-11.6459
▁Wie	-11.6461
▁zvino	-11.6461
▁ningu	-11.6461
يق	-11.6461
کر	-11.6462
▁naw	-11.6462
iꞌ	-11.6462
ត្រូវ	-11.6463
▁kete	-11.6464
▁digi	-11.6464
”?	-11.6465
оо	-11.6465
လႄႈ	-11.6466
ਜ਼	-11.6466
pm	-11.647
יל	-11.6471
▁Rut	-11.6471
anil	-11.6472
នោះ	-11.6472
▁hrang	-11.6473
ပ်	-11.6473
erne	-11.6474
gye	-11.6474
▁xie	-11.6474
ąą	-11.6474
▁हमर	-11.6476
atsi	-11.6476
हु	-11.6477
??	-11.6478
▁түр	-11.6478
▁sakit	-11.6479
▁elo	-11.6481
vanje	-11.6481
▁Jésus	-11.6481
▁kaam	-11.6482
anii	-11.6482
▁Mis	-11.6483
▁popul	-11.6483
▁पो	-11.6484
▁Nzema	-11.6484
▁пан	-11.6487
▁ప్ర	-11.6487
nywa	-11.6488
▁plo	-11.6489
logo	-11.6492
naca	-11.6492
▁Pea	-11.6492
ހަ	-11.6495
bane	-11.6495
▁طلا	-11.6496
ering	-11.6496
yamo	-11.6496
▁nə	-11.6496
ାଇ	-11.6496
ters	-11.6498
▁tips	-11.6499
▁jucha	-11.6499
▁sko	-11.65
বু	-11.65
▁fakama	-11.6501
▁jal	-11.6501
▁Basa	-11.6504
ཀ	-11.6504
▁SOMOL	-11.6505
▁استعمال	-11.6505
▁yeni	-11.6506
amaa	-11.6507
▁چین	-11.6509
eld	-11.6509
▁kuh	-11.6509
▁rah	-11.651
skom	-11.6511
सँ	-11.6511
▁Japan	-11.6512
wele	-11.6512
sura	-11.6514
▁बन	-11.6515
вы	-11.6515
▁tere	-11.6515
ᖏ	-11.6516
ၵေႃႈ	-11.6516
▁хүн	-11.6517
▁Ху	-11.6517
▁Κ	-11.6519
toc	-11.652
▁ngesi	-11.6522
▁ول	-11.6523
tuka	-11.6523
▁кала	-11.6525
مه	-11.6525
▁жыл	-11.6526
▁Mara	-11.6527
manya	-11.6527
ದಿ	-11.653
ტ	-11.653
raya	-11.6531
▁ig	-11.6531
老	-11.6531
▁timi	-11.6531
ۇ	-11.6531
ρι	-11.6531
▁kuva	-11.6532
дагъы	-11.6532
▁tuo	-11.6533
ppen	-11.6533
hama	-11.6533
▁Mes	-11.6535
▁ут	-11.6537
ඩ	-11.6537
▁MO	-11.6538
rse	-11.6538
vs	-11.6539
ɛ̃	-11.6539
ු	-11.6539
▁zama	-11.6541
▁kandin	-11.6542
aña	-11.6542
ී	-11.6544
сиз	-11.6544
༌	-11.6545
▁nago	-11.6545
▁Kata	-11.6545
yad	-11.6546
▁झ	-11.6546
▁jet	-11.6546
dɨ	-11.6546
▁xam	-11.6547
▁mayi	-11.6548
▁vs	-11.6548
▁Trump	-11.6549
▁casino	-11.6549
▁मुर	-11.6549
▁baji	-11.6551
▁тем	-11.6551
EN	-11.6551
vula	-11.6552
▁regi	-11.6554
▁apni	-11.6555
ço	-11.6555
ाव	-11.6555
ður	-11.6556
owe	-11.6557
▁ite	-11.6559
كە	-11.656
▁Liliopsida	-11.656
▁Nyamenle	-11.656
mail	-11.6561
▁gauna	-11.6561
▁sẽ	-11.6561
▁Jeova	-11.6562
▁š	-11.6562
▁Hana	-11.6563
ρο	-11.6564
cí	-11.6564
光	-11.6564
rasa	-11.6566
гъо	-11.6566
▁ამ	-11.6566
мал	-11.6567
▁Мин	-11.6567
ଜ	-11.6567
gram	-11.6568
▁ende	-11.6569
▁Xu	-11.6569
áng	-11.657
ⴻⵏ	-11.6572
бур	-11.6572
▁ángel	-11.6572
ლა	-11.6573
▁це	-11.6573
▁iOS	-11.6574
জা	-11.6576
▁թ	-11.6577
▁ⵓⵔ	-11.6577
▁մի	-11.6578
▁Ngöbö	-11.6578
time	-11.6579
cj	-11.6579
эри	-11.6579
alt	-11.6579
ищ	-11.658
与	-11.6581
▁شو	-11.6581
▁zhang	-11.6581
▁General	-11.6581
ێک	-11.6582
ٹی	-11.6582
shta	-11.6582
▁FA	-11.6583
ವಾ	-11.6583
▁बना	-11.6584
▁στην	-11.6586
غان	-11.6586
▁δεν	-11.6586
йн	-11.6586
▁jiru	-11.6587
▁Luda	-11.6587
드	-11.659
▁bạn	-11.659
▁Edeke	-11.6591
▁Yang	-11.6591
ຸ	-11.6592
раш	-11.6592
▁pw	-11.6593
▁chat	-11.6593
▁Aruba	-11.6593
է	-11.6594
qta	-11.6594
▁ет	-11.6597
yya	-11.6598
▁अपना	-11.6602
nax	-11.6603
▁Sinhala	-11.6603
▁rö	-11.6603
مل	-11.6606
дары	-11.6607
▁District	-11.6607
ensi	-11.6607
▁ajta	-11.6609
बि	-11.661
▁anjaha	-11.661
kulo	-11.661
▁nunu	-11.661
taman	-11.6611
lgan	-11.6612
ōw	-11.6614
▁inga	-11.6614
ych	-11.6614
mez	-11.6614
▁hpa	-11.6614
▁qian	-11.6615
naaⁿ	-11.6615
▁siga	-11.6616
ખ	-11.6617
cara	-11.6617
лэсь	-11.662
▁mehn	-11.6621
▁Xo	-11.6623
▁Miqyail	-11.6624
▁جی	-11.6624
ियन	-11.6624
ение	-11.6626
▁wuu	-11.6628
▁soh	-11.6629
opo	-11.663
ör	-11.6632
vya	-11.6632
▁сам	-11.6632
▁revenuo	-11.6633
▁sis	-11.6633
TO	-11.6634
moto	-11.6635
လၢအ	-11.6635
mbele	-11.6636
▁саб	-11.6637
▁ἀπὸ	-11.6637
▁Wai	-11.6637
▁һ	-11.6639
plan	-11.6642
mato	-11.6643
ዶ	-11.6643
▁wooko	-11.6643
tain	-11.6644
гэ	-11.6645
▁Ор	-11.6645
cano	-11.6645
▁Tigrinya	-11.6645
▁gürigia	-11.6645
horo	-11.6646
EM	-11.6647
Rom	-11.6647
dle	-11.6647
▁Finnish	-11.665
lulu	-11.6651
▁ۋە	-11.6651
ပဵၼ်	-11.6652
Ꮹ	-11.6653
pulo	-11.6653
rz	-11.6653
lej	-11.6654
▁baik	-11.6656
▁кеч	-11.6656
enne	-11.6657
εῖ	-11.6657
▁lona	-11.6657
▁lä	-11.6657
▁tò	-11.6658
▁Ot	-11.6659
▁करने	-11.666
inin	-11.6661
నే	-11.6663
▁barang	-11.6663
ύ	-11.6664
lj	-11.6665
كى	-11.6666
▁helo	-11.6666
RU	-11.6667
kera	-11.6668
జ	-11.6668
adda	-11.667
onse	-11.667
▁auch	-11.6671
ора	-11.6671
▁gali	-11.6672
ीक	-11.6672
વી	-11.6673
▁fro	-11.6673
▁keren	-11.6673
▁dov	-11.6673
▁neva	-11.6673
▁Lan	-11.6673
▁hmuh	-11.6673
еб	-11.6674
▁साल	-11.6675
леп	-11.6675
▁miti	-11.6675
▁kesi	-11.6676
▁wã	-11.6676
waka	-11.6676
abot	-11.6676
太	-11.6676
▁raris	-11.6677
▁bö	-11.6677
수	-11.6678
LE	-11.6678
hii	-11.6678
úl	-11.6678
▁karaia	-11.6678
дов	-11.6678
▁primer	-11.6679
yp	-11.6679
ില്‍	-11.6681
▁fela	-11.6685
▁ahte	-11.6686
ाक	-11.6688
▁rub	-11.6689
▁బ	-11.6689
энэ	-11.6689
▁тан	-11.669
wol	-11.669
cula	-11.6691
▁xun	-11.6691
▁fou	-11.6692
▁Кар	-11.6692
лік	-11.6692
▁ఇ	-11.6696
▁gɨ	-11.6698
▁koutou	-11.6698
▁animal	-11.6699
▁hota	-11.6699
uq	-11.6699
▁aↄ̃	-11.67
laba	-11.6701
ਿ	-11.6701
▁сана	-11.6701
sɩ	-11.6701
▁ಚ	-11.6701
▁እዚ	-11.6701
▁reco	-11.6702
wys	-11.6703
ၢ	-11.6703
áá	-11.6704
▁kli	-11.6704
实	-11.6705
νο	-11.6705
jqui	-11.6706
▁ऐ	-11.6706
▁کرنے	-11.6706
gbu	-11.6707
▁tâ	-11.6707
▁küme	-11.6708
▁Slovak	-11.6709
қи	-11.671
▁nego	-11.6711
▁adong	-11.6711
▁kabi	-11.6713
▁чыл	-11.6713
회	-11.6714
urt	-11.6715
▁avel	-11.6715
▁America	-11.6717
▁ನಿ	-11.6717
▁Он	-11.6718
克	-11.6718
లి	-11.6718
pona	-11.6719
یس	-11.672
▁euro	-11.672
tham	-11.672
ниҥ	-11.6721
▁Ndo	-11.6721
̍t	-11.6722
ías	-11.6722
▁leya	-11.6722
▁Star	-11.6723
иль	-11.6724
▁hende	-11.6725
tō	-11.6725
▁बोल	-11.6726
▁boli	-11.6726
▁Kim	-11.6727
တီ	-11.6727
▁unai	-11.673
vulu	-11.673
بی	-11.673
jang	-11.6731
▁ܡܶܢ	-11.6731
▁bole	-11.6731
▁bhfuil	-11.6731
▁oho	-11.6734
kuthi	-11.6734
ᏍᎩ	-11.6734
မူ	-11.6735
▁##	-11.6735
形	-11.6736
▁खातिर	-11.6736
▁oreng	-11.6736
த்	-11.6737
▁Dutch	-11.6737
▁କରି	-11.6737
▁million	-11.6737
kuta	-11.6737
▁IN	-11.6739
▁گل	-11.6741
धि	-11.6741
ċ	-11.6742
tibo	-11.6745
ża	-11.6746
rì	-11.6746
ɖɛ	-11.6747
zaw	-11.6747
▁خط	-11.6747
▁mla	-11.6748
▁wawa	-11.6749
▁Gue	-11.6749
▁እዩ።	-11.6749
ଗ	-11.675
▁Ino	-11.6751
ີ	-11.6751
▁judío	-11.6752
mii	-11.6753
▁ໃນ	-11.6753
▁woto	-11.6753
▁дур	-11.6754
▁Cov	-11.6754
▁Fri	-11.6755
ⴰⵙ	-11.6755
ندی	-11.6756
liko	-11.6756
ىس	-11.6758
▁muda	-11.6758
ವೆ	-11.6758
mpan	-11.6758
lju	-11.6758
▁އި	-11.6759
▁پو	-11.6759
▁apai	-11.6759
▁روز	-11.6759
▁Deo	-11.676
語	-11.6762
िका	-11.6762
лардан	-11.6762
سى	-11.6763
riko	-11.6763
▁پیش	-11.6764
▁ਉਹ	-11.6764
lô	-11.6765
▁pyao	-11.6765
Ᏺ	-11.6766
▁hoi	-11.6766
тӧ	-11.6767
▁فر	-11.6769
سن	-11.6769
انه	-11.6769
лад	-11.677
ssan	-11.677
▁multi	-11.677
▁Dal	-11.677
▁pensa	-11.677
తో	-11.6773
▁üçin	-11.6773
chte	-11.6776
▁ī	-11.6777
▁халкъ	-11.6779
ɩɩ	-11.678
oji	-11.678
kich	-11.6781
wanga	-11.6781
sp	-11.6782
boa	-11.6783
▁ܚ	-11.6785
▁eit	-11.6786
▁ighe	-11.6787
▁Александр	-11.6788
▁está	-11.6788
ή	-11.6788
▁vwo	-11.6788
▁xqui	-11.6789
жӹ	-11.6789
▁chit	-11.6789
ери	-11.679
uwan	-11.679
sca	-11.6791
▁ව	-11.6792
▁lena	-11.6792
▁maxim	-11.6792
神	-11.6792
▁detlot	-11.6794
▁হা	-11.6795
▁Tr	-11.6796
ыры	-11.6796
▁baku	-11.6796
lec	-11.6797
▁समाज	-11.6797
▁बाक्‍त	-11.6797
▁gul	-11.6798
ူး	-11.6798
▁уй	-11.6799
放	-11.68
▁bahwa	-11.68
▁pepa	-11.68
ште	-11.6801
▁ד	-11.6801
мӕ	-11.6801
▁mutu	-11.6801
▁verk	-11.6802
ɛli	-11.6802
▁Ꮎ	-11.6803
ᐅᑎ	-11.6804
бит	-11.6805
▁cɛ	-11.6806
ема	-11.6806
тя	-11.6807
▁dege	-11.6808
sep	-11.6809
ibu	-11.6809
▁ނު	-11.6809
テ	-11.6809
йт	-11.6809
ຫ	-11.6811
owo	-11.6811
ட்	-11.6811
▁yun	-11.6812
▁cen	-11.6812
▁fas	-11.6813
▁मिल	-11.6813
anne	-11.6813
эш	-11.6814
ኔ	-11.6814
wene	-11.6815
мак	-11.6816
▁utz	-11.6816
科	-11.6816
য়া	-11.6817
pira	-11.6817
ног	-11.6817
vho	-11.6817
side	-11.6817
lelwa	-11.6817
ంది	-11.6818
▁gí	-11.6818
nings	-11.6819
▁፣	-11.6819
လူ	-11.6819
▁USA	-11.682
seli	-11.682
▁sle	-11.6821
EL	-11.6822
▁passa	-11.6822
vre	-11.6822
▁болгаш	-11.6823
over	-11.6823
▁Ako	-11.6823
▁puku	-11.6823
▁eni	-11.6824
leli	-11.6824
σι	-11.6825
vata	-11.6826
▁jir	-11.6826
käre	-11.6826
unge	-11.6827
▁Zoova	-11.6828
lete	-11.683
▁anaa	-11.6831
▁보	-11.6833
tate	-11.6833
زا	-11.6834
▁Gal	-11.6835
▁kow	-11.6837
▁oshi	-11.6839
mpli	-11.6839
▁matou	-11.6839
မီး	-11.6839
程	-11.6839
▁mì	-11.6841
hki	-11.6841
еле	-11.6841
bino	-11.6842
▁בא	-11.6843
магъа	-11.6843
▁been	-11.6843
jte	-11.6844
▁sali	-11.6844
常	-11.6844
▁ந	-11.6845
▁prop	-11.6847
خت	-11.6848
jos	-11.685
inak	-11.6851
вод	-11.6852
接	-11.6852
▁шар	-11.6852
▁ши	-11.6853
rol	-11.6854
colo	-11.6854
▁qala	-11.6855
▁Fil	-11.6855
ոն	-11.6858
ðu	-11.6859
poi	-11.686
▁second	-11.686
▁battu	-11.6861
oru	-11.6862
êr	-11.6862
▁къал	-11.6863
▁utu	-11.6864
▁aig	-11.6864
эж	-11.6865
FA	-11.6865
▁вай	-11.6866
zul	-11.6866
▁padi	-11.6866
óng	-11.6868
▁gbɛ̃	-11.6868
ונג	-11.6868
▁paagi	-11.6869
xh	-11.6871
sub	-11.6871
▁आस	-11.6872
่	-11.6873
▁rona	-11.6874
▁uiga	-11.6874
ܶܗ	-11.6875
▁онлайн	-11.6875
ᐃᑦ	-11.6875
বে	-11.6876
▁haru	-11.6876
йир	-11.6877
▁karan	-11.6878
▁farmhouse	-11.6879
▁ஒரு	-11.6879
тел	-11.6881
▁aza	-11.6881
▁kucita	-11.6881
әс	-11.6883
▁پێ	-11.6883
つ	-11.6884
▁mō	-11.6884
ове	-11.6884
▁ܫ	-11.6885
▁secara	-11.6885
arka	-11.6887
▁susi	-11.6887
▁tolu	-11.6888
lungu	-11.6888
ndha	-11.6889
σε	-11.6891
мі	-11.6891
ਸ਼	-11.6892
wili	-11.6892
▁دري	-11.6893
▁უ	-11.6894
lagi	-11.6894
ката	-11.6894
▁sent	-11.6895
tih	-11.6896
pani	-11.6896
ގަ	-11.6897
▁pakon	-11.6897
▁लेल	-11.6897
tty	-11.6898
▁ngundo	-11.6898
▁galaw	-11.6899
чик	-11.69
ගේ	-11.69
быт	-11.69
сында	-11.6902
▁nimba	-11.6902
zà	-11.6902
▁хъу	-11.6903
▁pase	-11.6904
sig	-11.6904
лиг	-11.6905
ẓ	-11.6906
▁ante	-11.6906
ndre	-11.6906
▁гъап	-11.6906
OR	-11.6909
万	-11.6909
cit	-11.6909
▁epe	-11.6909
▁գ	-11.6909
रू	-11.6911
▁slu	-11.6911
ǫ	-11.6912
ੜ	-11.6912
▁Ꭶ	-11.6914
ਨਾ	-11.6914
▁kitẹ	-11.6915
▁rɛ	-11.6916
уй	-11.6917
▁рук	-11.6918
▁grand	-11.6918
▁rupa	-11.6919
▁ella	-11.692
³¼	-11.6921
chaa	-11.6922
▁stainless	-11.6923
බ	-11.6923
০	-11.6923
▁development	-11.6924
▁اسان	-11.6924
чч	-11.6924
skri	-11.6925
▁ibe	-11.6926
▁sampe	-11.6926
▁nisi	-11.6926
▁dab	-11.6926
▁می‌	-11.6927
бек	-11.6927
▁был	-11.6927
ско	-11.6927
singaw	-11.6928
णे	-11.6928
▁Iban	-11.6928
▁ሰ	-11.6928
▁stro	-11.6929
ಲೊ	-11.6929
ҕа	-11.6929
▁करत	-11.693
%)	-11.693
ံ	-11.693
▁suk	-11.6931
anyi	-11.6931
▁Daw	-11.6932
▁aer	-11.6933
▁obe	-11.6935
łe	-11.6936
▁poo	-11.6936
ሻ	-11.6936
▁jahua	-11.6937
mbulu	-11.6937
ความ	-11.6937
▁Ве	-11.6938
▁Cantonese	-11.694
種	-11.694
▁cani	-11.6941
▁Kri	-11.6942
цу	-11.6942
lunga	-11.6943
▁bikin	-11.6944
▁jastal	-11.6944
mpah	-11.6945
ɖo	-11.6945
▁Ari	-11.6945
▁ibana	-11.6945
东	-11.6945
车	-11.6945
▁jylla	-11.6945
▁wä	-11.6946
ette	-11.6946
▁wannan	-11.6947
▁zat	-11.6949
▁ئی	-11.6949
关	-11.6949
ๆ	-11.695
▁criollo	-11.695
▁bh	-11.695
vier	-11.695
▁tɔm	-11.6951
cé	-11.6952
ကြီး	-11.6952
▁ngwane	-11.6953
から	-11.6954
▁conta	-11.6955
▁dass	-11.6955
▁नहि	-11.6957
▁wir	-11.6957
▁cá	-11.6958
さ	-11.6958
▁tad	-11.6958
▁أَ	-11.6959
scri	-11.696
list	-11.696
ӕй	-11.6961
▁RE	-11.6961
daga	-11.6963
▁२	-11.6963
ntha	-11.6963
▁stad	-11.6964
▁jej	-11.6964
▁bigi	-11.6966
ശ	-11.6968
стэ	-11.6968
▁tipo	-11.6968
fet	-11.6969
▁Ак	-11.6969
▁bou	-11.697
▁Met	-11.697
zil	-11.697
יי	-11.6971
ajo	-11.6971
డు	-11.6971
MO	-11.6971
និង	-11.6971
▁Jeezas	-11.6972
ጉ	-11.6972
kora	-11.6972
▁ëª	-11.6973
Ү	-11.6973
ས།	-11.6974
▁buru	-11.6975
▁pöt	-11.6975
▁biao	-11.6976
▁Gre	-11.6976
▁yɛɛ	-11.6977
▁tink	-11.6977
နီ	-11.6979
rl	-11.6979
tyr	-11.698
적	-11.698
Waray	-11.698
▁haha	-11.6981
ÕÕ	-11.6981
yên	-11.6982
ܪ̈	-11.6982
ëž	-11.6982
▁অমা	-11.6984
руш	-11.6984
▁Rome	-11.6984
rbi	-11.6985
▁nc	-11.6985
cket	-11.6986
уда	-11.6986
▁кода	-11.6987
▁Δ	-11.6987
рах	-11.6989
kih	-11.6989
mış	-11.6989
▁لی	-11.699
tuh	-11.699
ndye	-11.6991
ތި	-11.6992
lain	-11.6993
▁hkra	-11.6993
中国	-11.6994
▁Pou	-11.6994
ഗ	-11.6994
த்து	-11.6995
jme	-11.6996
Cha	-11.6997
▁administra	-11.6998
poli	-11.6999
ान	-11.6999
श्	-11.7
nanpaj	-11.7001
йын	-11.7001
esti	-11.7002
▁कह	-11.7002
itos	-11.7002
leko	-11.7002
tena	-11.7003
▁tuke	-11.7006
▁iau	-11.7006
лган	-11.7006
eⁿ	-11.7007
ынан	-11.7007
سر	-11.7007
▁mosi	-11.7008
ໄ	-11.7008
▁mbʋ	-11.7009
Dummad	-11.701
rgen	-11.701
ⵢⴰ	-11.701
mach	-11.7013
▁aɖe	-11.7014
▁tlha	-11.7015
ရေး	-11.7015
▁huk	-11.7015
янь	-11.7015
ири	-11.7015
९	-11.7016
ĩa	-11.7016
▁nzi	-11.7017
▁akpa	-11.7018
ual	-11.7019
▁над	-11.7019
ust	-11.7019
▁pej	-11.7019
DA	-11.7019
各	-11.702
ӓт	-11.702
turu	-11.7021
gau	-11.7023
▁vegn	-11.7024
▁insan	-11.7024
▁भर	-11.7025
OT	-11.7027
kuli	-11.7027
ნი	-11.7027
riri	-11.7027
kete	-11.7028
▁ಜ	-11.7028
▁simoo	-11.7028
▁fila	-11.7028
▁mash	-11.7029
指	-11.7029
तर	-11.7029
▁[...]	-11.7029
▁templo	-11.7029
▁kobi	-11.7031
essa	-11.7031
hí	-11.7032
ларны	-11.7032
rọ	-11.7032
تم	-11.7033
rki	-11.7033
전	-11.7033
▁mpu	-11.7034
▁hawa	-11.7034
▁يې	-11.7035
▁Dev	-11.7036
rsi	-11.7036
ދާ	-11.7036
lami	-11.7037
্যা	-11.7037
▁vys	-11.7037
▁gome	-11.7037
ээн	-11.7038
▁qual	-11.704
ӑ	-11.704
▁chad	-11.7041
▁፡፡	-11.7041
ធ្វើ	-11.7041
▁sari	-11.7042
▁गेलइ	-11.7044
fè	-11.7044
して	-11.7045
TI	-11.7047
▁qar	-11.7047
caya	-11.7048
▁kaki	-11.7048
טער	-11.7048
▁tapa	-11.7049
ымы	-11.7049
وري	-11.7049
▁тон	-11.705
▁ಕೊ	-11.7051
▁How	-11.7054
▁ipo	-11.7054
▁дав	-11.7054
יז	-11.7054
▁khou	-11.7054
ռ	-11.7055
ጅ	-11.7056
և	-11.7056
▁KO	-11.7058
▁sele	-11.7058
volu	-11.7058
ކް	-11.7059
ଛି	-11.7059
布	-11.706
源	-11.706
λη	-11.7062
▁Far	-11.7062
jà	-11.7062
bâ	-11.7063
ဆို	-11.7064
ຮ	-11.7064
tọ	-11.7066
▁Kung	-11.7066
▁yì	-11.7067
▁तब	-11.7068
▁ezin	-11.7069
ndlela	-11.7069
٫	-11.7069
gā	-11.707
▁leg	-11.707
▁dog	-11.7071
ଡ	-11.7071
▁lengua	-11.7072
kuy	-11.7072
mone	-11.7072
alil	-11.7074
▁Kwanyama	-11.7074
▁ucha	-11.7075
азы	-11.7076
▁pema	-11.7076
▁rish	-11.7077
bho	-11.7078
▁छु	-11.7079
lawo	-11.7079
ыф	-11.708
▁اگر	-11.7081
Che	-11.7081
▁Эл	-11.7081
▁چی	-11.7081
▁saking	-11.7082
పు	-11.7083
zva	-11.7083
▁oloh	-11.7083
wula	-11.7083
gene	-11.7083
dden	-11.7083
▁cantyja	-11.7084
rangan	-11.7084
tô	-11.7084
▁lafa	-11.7085
ազ	-11.7085
▁ош	-11.7085
▁йи	-11.7087
ⵏⴰ	-11.7087
ngila	-11.7088
sada	-11.7088
then	-11.709
şe	-11.709
▁там	-11.709
▁badu	-11.7091
▁Pet	-11.7092
کس	-11.7092
că	-11.7092
▁سَ	-11.7092
▁دست	-11.7093
pole	-11.7093
នៃ	-11.7093
gda	-11.7093
▁lawv	-11.7094
try	-11.7094
mmen	-11.7096
▁ᐊᒻᒪ	-11.7096
vum	-11.7097
kanya	-11.7097
▁Aron	-11.7098
ŋo	-11.7098
▁dala	-11.7098
kpo	-11.7099
▁Kristen	-11.7101
▁kru	-11.7102
▁все	-11.7102
▁isu	-11.7104
سان	-11.7104
kꞌa	-11.7105
گی	-11.7106
cwa	-11.7106
▁waxay	-11.7107
▁ndia	-11.7108
▁Kei	-11.7109
Curaçao	-11.711
▁special	-11.711
▁хур	-11.711
ksa	-11.711
▁Yen	-11.711
▁бары	-11.7111
▁Mga	-11.7111
ац	-11.7111
vī	-11.7112
пп	-11.7113
rne	-11.7114
치	-11.7114
ghu	-11.7115
˜¤	-11.7115
▁Kita	-11.7116
ەکە	-11.7117
jah	-11.7117
ⴰⵔ	-11.7118
▁Plus	-11.7118
社	-11.7118
▁room	-11.712
rayku	-11.7121
▁оьз	-11.7122
ØªÙ	-11.7123
▁dib	-11.7124
lesi	-11.7124
▁dva	-11.7125
▁كَ	-11.7125
就是	-11.7127
▁[…]	-11.7128
▁hā	-11.7129
▁Mori	-11.7129
▁grupo	-11.7129
יר	-11.713
▁ਮ	-11.7133
▁gli	-11.7133
alan	-11.7133
▁pret	-11.7136
▁Get	-11.7136
▁иза	-11.7137
▁steel	-11.7137
soq	-11.7137
link	-11.7138
ifa	-11.7138
▁tete	-11.7139
mää	-11.7139
▁avri	-11.714
ӹштӹ	-11.714
wor	-11.714
vala	-11.7143
ിച്ച	-11.7145
▁دارد	-11.7145
▁Bol	-11.7147
லை	-11.7147
▁ಮತ್ತು	-11.715
▁mipi	-11.7151
уру	-11.7152
else	-11.7152
ology	-11.7154
▁werk	-11.7154
bora	-11.7154
ਏ	-11.7154
▁fui	-11.7154
[...]
